{
  "version": "1.0",
  "truncation": null,
  "padding": null,
  "added_tokens": [
    {
      "id": 0,
      "content": "[PAD]",
      "single_word": false,
      "lstrip": false,
      "rstrip": false,
      "normalized": false,
      "special": true
    },
    {
      "id": 1,
      "content": "[UNK]",
      "single_word": false,
      "lstrip": false,
      "rstrip": false,
      "normalized": false,
      "special": true
    },
    {
      "id": 2,
      "content": "[CLS]",
      "single_word": false,
      "lstrip": false,
      "rstrip": false,
      "normalized": false,
      "special": true
    },
    {
      "id": 3,
      "content": "[SEP]",
      "single_word": false,
      "lstrip": false,
      "rstrip": false,
      "normalized": false,
      "special": true
    },
    {
      "id": 4,
      "content": "[MASK]",
      "single_word": false,
      "lstrip": false,
      "rstrip": false,
      "normalized": false,
      "special": true
    }
  ],
  "normalizer": {
    "type": "BertNormalizer",
    "clean_text": true,
    "handle_chinese_chars": true,
    "strip_accents": null,
    "lowercase": false
  },
  "pre_tokenizer": {
    "type": "BertPreTokenizer"
  },
  "post_processor": {
    "type": "TemplateProcessing",
    "single": [
      {
        "SpecialToken": {
          "id": "[CLS]",
          "type_id": 0
        }
      },
      {
        "Sequence": {
          "id": "A",
          "type_id": 0
        }
      },
      {
        "SpecialToken": {
          "id": "[SEP]",
          "type_id": 0
        }
      }
    ],
    "pair": [
      {
        "SpecialToken": {
          "id": "[CLS]",
          "type_id": 0
        }
      },
      {
        "Sequence": {
          "id": "A",
          "type_id": 0
        }
      },
      {
        "SpecialToken": {
          "id": "[SEP]",
          "type_id": 0
        }
      },
      {
        "Sequence": {
          "id": "B",
          "type_id": 1
        }
      },
      {
        "SpecialToken": {
          "id": "[SEP]",
          "type_id": 1
        }
      }
    ],
    "special_tokens": {
      "[CLS]": {
        "id": "[CLS]",
        "ids": [
          2
        ],
        "tokens": [
          "[CLS]"
        ]
      },
      "[SEP]": {
        "id": "[SEP]",
        "ids": [
          3
        ],
        "tokens": [
          "[SEP]"
        ]
      }
    }
  },
  "decoder": {
    "type": "WordPiece",
    "prefix": "##",
    "cleanup": true
  },
  "model": {
    "type": "WordPiece",
    "unk_token": "[UNK]",
    "continuing_subword_prefix": "##",
    "max_input_chars_per_word": 100,
    "vocab": {
      "[PAD]": 0,
      "[UNK]": 1,
      "[CLS]": 2,
      "[SEP]": 3,
      "[MASK]": 4,
      "!": 5,
      "\"": 6,
      "#": 7,
      "%": 8,
      "&": 9,
      "'": 10,
      "(": 11,
      ")": 12,
      "*": 13,
      "+": 14,
      ",": 15,
      "-": 16,
      ".": 17,
      "/": 18,
      "0": 19,
      "1": 20,
      "2": 21,
      "3": 22,
      "4": 23,
      "5": 24,
      "6": 25,
      "7": 26,
      "8": 27,
      "9": 28,
      ":": 29,
      ";": 30,
      "<": 31,
      "=": 32,
      ">": 33,
      "?": 34,
      "@": 35,
      "A": 36,
      "B": 37,
      "C": 38,
      "D": 39,
      "E": 40,
      "F": 41,
      "G": 42,
      "H": 43,
      "I": 44,
      "J": 45,
      "K": 46,
      "L": 47,
      "M": 48,
      "N": 49,
      "O": 50,
      "P": 51,
      "Q": 52,
      "R": 53,
      "S": 54,
      "T": 55,
      "U": 56,
      "V": 57,
      "W": 58,
      "X": 59,
      "Y": 60,
      "Z": 61,
      "[": 62,
      "\\": 63,
      "]": 64,
      "_": 65,
      "a": 66,
      "b": 67,
      "c": 68,
      "d": 69,
      "e": 70,
      "f": 71,
      "g": 72,
      "h": 73,
      "i": 74,
      "j": 75,
      "k": 76,
      "l": 77,
      "m": 78,
      "n": 79,
      "o": 80,
      "p": 81,
      "q": 82,
      "r": 83,
      "s": 84,
      "t": 85,
      "u": 86,
      "v": 87,
      "w": 88,
      "x": 89,
      "y": 90,
      "z": 91,
      "|": 92,
      "¡": 93,
      "¢": 94,
      "§": 95,
      "©": 96,
      "ª": 97,
      "®": 98,
      "¯": 99,
      "½": 100,
      "¾": 101,
      "¿": 102,
      "Â": 103,
      "Ã": 104,
      "Í": 105,
      "ß": 106,
      "à": 107,
      "â": 108,
      "é": 109,
      "ï": 110,
      "ü": 111,
      "‐": 112,
      "‑": 113,
      "–": 114,
      "—": 115,
      "‘": 116,
      "’": 117,
      "“": 118,
      "”": 119,
      "•": 120,
      "…": 121,
      "■": 122,
      "##e": 123,
      "##s": 124,
      "##i": 125,
      "##d": 126,
      "##u": 127,
      "##a": 128,
      "##l": 129,
      "##n": 130,
      "##t": 131,
      "##h": 132,
      "##o": 133,
      "##r": 134,
      "##f": 135,
      "##q": 136,
      "##x": 137,
      "##g": 138,
      "##m": 139,
      "##c": 140,
      "##p": 141,
      "##b": 142,
      "##y": 143,
      "##F": 144,
      "##k": 145,
      "##M": 146,
      "##S": 147,
      "##â": 148,
      "##w": 149,
      "##I": 150,
      "##z": 151,
      "##K": 152,
      "##Â": 153,
      "##v": 154,
      "##N": 155,
      "##G": 156,
      "##6": 157,
      "##9": 158,
      "##4": 159,
      "##2": 160,
      "##8": 161,
      "##ª": 162,
      "##T": 163,
      "##0": 164,
      "##A": 165,
      "##5": 166,
      "##j": 167,
      "##O": 168,
      "##J": 169,
      "##1": 170,
      "##P": 171,
      "##U": 172,
      "##C": 173,
      "##®": 174,
      "##E": 175,
      "##B": 176,
      "##R": 177,
      "##3": 178,
      "##X": 179,
      "##D": 180,
      "##L": 181,
      "##ß": 182,
      "##Y": 183,
      "##H": 184,
      "##V": 185,
      "##W": 186,
      "##7": 187,
      "##é": 188,
      "##Q": 189,
      "##¢": 190,
      "##Ã": 191,
      "##ü": 192,
      "##©": 193,
      "##¯": 194,
      "##ï": 195,
      "##Í": 196,
      "##¾": 197,
      "##er": 198,
      "##on": 199,
      "##at": 200,
      "##es": 201,
      "##ou": 202,
      "th": 203,
      "##or": 204,
      "you": 205,
      "##in": 206,
      "to": 207,
      "##ion": 208,
      "the": 209,
      "in": 210,
      "##it": 211,
      "an": 212,
      "##ro": 213,
      "##ct": 214,
      "##ing": 215,
      "##ic": 216,
      "##al": 217,
      "##ation": 218,
      "##ed": 219,
      "##ur": 220,
      "of": 221,
      "##en": 222,
      "and": 223,
      "##for": 224,
      "pro": 225,
      "##ers": 226,
      "##is": 227,
      "##form": 228,
      "##le": 229,
      "##formation": 230,
      "or": 231,
      "your": 232,
      "##ar": 233,
      "us": 234,
      "re": 235,
      "information": 236,
      "##an": 237,
      "co": 238,
      "##ess": 239,
      "##ata": 240,
      "ma": 241,
      "##erson": 242,
      "data": 243,
      "##ersonal": 244,
      "##ve": 245,
      "##il": 246,
      "##ent": 247,
      "con": 248,
      "we": 249,
      "##ect": 250,
      "##ta": 251,
      "our": 252,
      "personal": 253,
      "##ith": 254,
      "##ig": 255,
      "##cess": 256,
      "with": 257,
      "for": 258,
      "##erv": 259,
      "may": 260,
      "as": 261,
      "##id": 262,
      "su": 263,
      "##as": 264,
      "##igh": 265,
      "##ight": 266,
      "##ervic": 267,
      "##ch": 268,
      "##ri": 269,
      "right": 270,
      "##th": 271,
      "be": 272,
      "##est": 273,
      "com": 274,
      "##vid": 275,
      "##ir": 276,
      "wh": 277,
      "ha": 278,
      "on": 279,
      "have": 280,
      "##os": 281,
      "##ter": 282,
      "##ies": 283,
      "process": 284,
      "##re": 285,
      "use": 286,
      "##ot": 287,
      "##ly": 288,
      "de": 289,
      "##om": 290,
      "ad": 291,
      "provid": 292,
      "##ce": 293,
      "##ervices": 294,
      "##ut": 295,
      "that": 296,
      "##qu": 297,
      "##ble": 298,
      "##et": 299,
      "We": 300,
      "##ther": 301,
      "##art": 302,
      "##ate": 303,
      "##ol": 304,
      "ac": 305,
      "processing": 306,
      "not": 307,
      "##ity": 308,
      "##ac": 309,
      "##lect": 310,
      "part": 311,
      "##ow": 312,
      "such": 313,
      "any": 314,
      "##im": 315,
      "##tain": 316,
      "In": 317,
      "##cl": 318,
      "al": 319,
      "col": 320,
      "by": 321,
      "ab": 322,
      "collect": 323,
      "##ud": 324,
      "##ject": 325,
      "##out": 326,
      "##ite": 327,
      "if": 328,
      "##ra": 329,
      "##bject": 330,
      "##pl": 331,
      "requ": 332,
      "##tact": 333,
      "##riv": 334,
      "##if": 335,
      "##ver": 336,
      "pur": 337,
      "other": 338,
      "contact": 339,
      "##st": 340,
      "is": 341,
      "##able": 342,
      "##tect": 343,
      "about": 344,
      "##clud": 345,
      "##ge": 346,
      "includ": 347,
      "##ill": 348,
      "at": 349,
      "tr": 350,
      "services": 351,
      "ex": 352,
      "##ok": 353,
      "provide": 354,
      "##rom": 355,
      "##bs": 356,
      "protect": 357,
      "##pos": 358,
      "cons": 359,
      "from": 360,
      "##acy": 361,
      "purpos": 362,
      "##ated": 363,
      "##ment": 364,
      "st": 365,
      "##rivacy": 366,
      "##nt": 367,
      "this": 368,
      "are": 369,
      "Information": 370,
      "##am": 371,
      "##fer": 372,
      "object": 373,
      "will": 374,
      "lo": 375,
      "ne": 376,
      "##ans": 377,
      "##ird": 378,
      "it": 379,
      "cont": 380,
      "add": 381,
      "sh": 382,
      "##ere": 383,
      "un": 384,
      "le": 385,
      "consent": 386,
      "request": 387,
      "purposes": 388,
      "##ail": 389,
      "##ul": 390,
      "third": 391,
      "##ions": 392,
      "##so": 393,
      "Personal": 394,
      "can": 395,
      "inter": 396,
      "including": 397,
      "privacy": 398,
      "Services": 399,
      "##ase": 400,
      "ap": 401,
      "en": 402,
      "##ws": 403,
      "##ertain": 404,
      "res": 405,
      "cook": 406,
      "##pt": 407,
      "##ervice": 408,
      "trans": 409,
      "protection": 410,
      "##pe": 411,
      "##uct": 412,
      "certain": 413,
      "##ist": 414,
      "out": 415,
      "##ount": 416,
      "also": 417,
      "##un": 418,
      "##ress": 419,
      "##ive": 420,
      "comp": 421,
      "access": 422,
      "tim": 423,
      "em": 424,
      "##cis": 425,
      "##low": 426,
      "acc": 427,
      "cookies": 428,
      "time": 429,
      "##um": 430,
      "address": 431,
      "##ure": 432,
      "##el": 433,
      "##isit": 434,
      "##ain": 435,
      "##let": 436,
      "visit": 437,
      "where": 438,
      "You": 439,
      "do": 440,
      "off": 441,
      "##end": 442,
      "webs": 443,
      "comm": 444,
      "how": 445,
      "leg": 446,
      "la": 447,
      "##ong": 448,
      "shar": 449,
      "##utom": 450,
      "##og": 451,
      "when": 452,
      "se": 453,
      "##lease": 454,
      "##ich": 455,
      "##vert": 456,
      "##ication": 457,
      "autom": 458,
      "##us": 459,
      "##ine": 460,
      "##ark": 461,
      "which": 462,
      "##rou": 463,
      "email": 464,
      "##vertis": 465,
      "ch": 466,
      "##age": 467,
      "##ust": 468,
      "##ose": 469,
      "##arket": 470,
      "##ard": 471,
      "interest": 472,
      "##iv": 473,
      "mak": 474,
      "##uth": 475,
      "please": 476,
      "##per": 477,
      "long": 478,
      "##ction": 479,
      "fe": 480,
      "market": 481,
      "dis": 482,
      "service": 483,
      "advertis": 484,
      "Th": 485,
      "##ures": 486,
      "reg": 487,
      "por": 488,
      "##ility": 489,
      "##uthor": 490,
      "bas": 491,
      "rece": 492,
      "##raw": 493,
      "##duct": 494,
      "##draw": 495,
      "##iz": 496,
      "withdraw": 497,
      "##ites": 498,
      "##der": 499,
      "compl": 500,
      "marketing": 501,
      "##ff": 502,
      "##bility": 503,
      "##ber": 504,
      "##dent": 505,
      "##pro": 506,
      "sup": 507,
      "##ors": 508,
      "offic": 509,
      "me": 510,
      "##ant": 511,
      "##olic": 512,
      "##ci": 513,
      "##ance": 514,
      "parties": 515,
      "##ustom": 516,
      "##ll": 517,
      "author": 518,
      "##ces": 519,
      "##ome": 520,
      "appl": 521,
      "decis": 522,
      "opt": 523,
      "##bl": 524,
      "automated": 525,
      "eu": 526,
      "##dentif": 527,
      "complain": 528,
      "per": 529,
      "##ical": 530,
      "##ary": 531,
      "porta": 532,
      "complaint": 533,
      "portability": 534,
      "so": 535,
      "##ag": 536,
      "##ie": 537,
      "provided": 538,
      "party": 539,
      "##ments": 540,
      "##ice": 541,
      "##and": 542,
      "officer": 543,
      "rel": 544,
      "account": 545,
      "share": 546,
      "decision": 547,
      "feat": 548,
      "num": 549,
      "te": 550,
      "##ay": 551,
      "law": 552,
      "transfer": 553,
      "##olicy": 554,
      "some": 555,
      "##ile": 556,
      "used": 557,
      "##cri": 558,
      "identif": 559,
      "##ory": 560,
      "##ence": 561,
      "based": 562,
      "bro": 563,
      "pre": 564,
      "necess": 565,
      "features": 566,
      "Site": 567,
      "##ducts": 568,
      "##ep": 569,
      "necessary": 570,
      "##ual": 571,
      "authority": 572,
      "number": 573,
      "##ish": 574,
      "brows": 575,
      "able": 576,
      "##ern": 577,
      "##gh": 578,
      "##por": 579,
      "requir": 580,
      "##ord": 581,
      "users": 582,
      "loc": 583,
      "rights": 584,
      "If": 585,
      "receive": 586,
      "legal": 587,
      "##mit": 588,
      "im": 589,
      "website": 590,
      "site": 591,
      "subject": 592,
      "making": 593,
      "ag": 594,
      "collected": 595,
      "fun": 596,
      "##crib": 597,
      "##ame": 598,
      "lod": 599,
      "prof": 600,
      "lodge": 601,
      "retain": 602,
      "set": 603,
      "##ore": 604,
      "##rough": 605,
      "rest": 606,
      "##cern": 607,
      "concern": 608,
      "##irect": 609,
      "restri": 610,
      "##lete": 611,
      "through": 612,
      "direct": 613,
      "##ple": 614,
      "dev": 615,
      "##pon": 616,
      "##ad": 617,
      "##red": 618,
      "To": 619,
      "##ork": 620,
      "##chn": 621,
      "##ations": 622,
      "##ese": 623,
      "mail": 624,
      "##ating": 625,
      "##ting": 626,
      "custom": 627,
      "visitors": 628,
      "##icable": 629,
      "act": 630,
      "##cur": 631,
      "applicable": 632,
      "##eep": 633,
      "##rope": 634,
      "all": 635,
      "partic": 636,
      "##ropean": 637,
      "##ack": 638,
      "browser": 639,
      "##aly": 640,
      "techn": 641,
      "contro": 642,
      "qu": 643,
      "##nd": 644,
      "policy": 645,
      "form": 646,
      "##ke": 647,
      "advertising": 648,
      "##iness": 649,
      "##usiness": 650,
      "##act": 651,
      "##ervis": 652,
      "supervis": 653,
      "device": 654,
      "##em": 655,
      "##ia": 656,
      "##ements": 657,
      "products": 658,
      "interests": 659,
      "wish": 660,
      "hel": 661,
      "function": 662,
      "##equ": 663,
      "supervisory": 664,
      "##od": 665,
      "compan": 666,
      "content": 667,
      "send": 668,
      "european": 669,
      "providers": 670,
      "##ages": 671,
      "##ever": 672,
      "##iling": 673,
      "order": 674,
      "help": 675,
      "##ph": 676,
      "its": 677,
      "##arch": 678,
      "business": 679,
      "using": 680,
      "commun": 681,
      "##ics": 682,
      "impro": 683,
      "profiling": 684,
      "cl": 685,
      "keep": 686,
      "below": 687,
      "##ip": 688,
      "##ister": 689,
      "analy": 690,
      "only": 691,
      "##port": 692,
      "name": 693,
      "##line": 694,
      "quest": 695,
      "##ications": 696,
      "ind": 697,
      "count": 698,
      "##ract": 699,
      "exam": 700,
      "spe": 701,
      "##ob": 702,
      "##ries": 703,
      "cho": 704,
      "example": 705,
      "websites": 706,
      "##ove": 707,
      "##ruct": 708,
      "track": 709,
      "##cial": 710,
      "er": 711,
      "##ional": 712,
      "web": 713,
      "beh": 714,
      "Service": 715,
      "##vent": 716,
      "Data": 717,
      "cor": 718,
      "ty": 719,
      "##vel": 720,
      "improve": 721,
      "##ities": 722,
      "however": 723,
      "controll": 724,
      "up": 725,
      "their": 726,
      "##ign": 727,
      "##ide": 728,
      "aff": 729,
      "restrict": 730,
      "##asure": 731,
      "fol": 732,
      "these": 733,
      "identifi": 734,
      "questions": 735,
      "follow": 736,
      "##ders": 737,
      "##ular": 738,
      "pl": 739,
      "##vi": 740,
      "##ercis": 741,
      "ask": 742,
      "Wh": 743,
      "##ry": 744,
      "exercis": 745,
      "##tern": 746,
      "discl": 747,
      "##curity": 748,
      "##other": 749,
      "delete": 750,
      "##su": 751,
      "##mot": 752,
      "another": 753,
      "##ous": 754,
      "##ection": 755,
      "respon": 756,
      "under": 757,
      "controller": 758,
      "##bscrib": 759,
      "activ": 760,
      "##op": 761,
      "online": 762,
      "##ason": 763,
      "need": 764,
      "##ivid": 765,
      "##cif": 766,
      "##rivy": 767,
      "reason": 768,
      "include": 769,
      "##ically": 770,
      "##ividual": 771,
      "##imate": 772,
      "specif": 773,
      "bet": 774,
      "adequ": 775,
      "Privy": 776,
      "sa": 777,
      "##one": 778,
      "##iss": 779,
      "Pro": 780,
      "##ful": 781,
      "##olog": 782,
      "security": 783,
      "required": 784,
      "particular": 785,
      "concerning": 786,
      "but": 787,
      "##ences": 788,
      "user": 789,
      "des": 790,
      "ful": 791,
      "has": 792,
      "register": 793,
      "##earch": 794,
      "##ners": 795,
      "promot": 796,
      "perform": 797,
      "choose": 798,
      "##itimate": 799,
      "news": 800,
      "individual": 801,
      "oper": 802,
      "rec": 803,
      "##ach": 804,
      "##gre": 805,
      "##raph": 806,
      "legitimate": 807,
      "The": 808,
      "##tings": 809,
      "grou": 810,
      "##bscribe": 811,
      "Us": 812,
      "av": 813,
      "##ld": 814,
      "##our": 815,
      "location": 816,
      "read": 817,
      "##ates": 818,
      "Web": 819,
      "##tand": 820,
      "##min": 821,
      "research": 822,
      "more": 823,
      "ph": 824,
      "those": 825,
      "##lev": 826,
      "##greg": 827,
      "technolog": 828,
      "IP": 829,
      "##ubl": 830,
      "purpose": 831,
      "##ize": 832,
      "corr": 833,
      "man": 834,
      "##ible": 835,
      "##oc": 836,
      "rev": 837,
      "addit": 838,
      "##all": 839,
      "##imit": 840,
      "##ized": 841,
      "customer": 842,
      "newslet": 843,
      "li": 844,
      "##ial": 845,
      "##ace": 846,
      "ass": 847,
      "appro": 848,
      "pos": 849,
      "##ms": 850,
      "##pr": 851,
      "relev": 852,
      "unders": 853,
      "chan": 854,
      "format": 855,
      "##obile": 856,
      "understand": 857,
      "##ook": 858,
      "rem": 859,
      "##eg": 860,
      "exist": 861,
      "settings": 862,
      "page": 863,
      "##ily": 864,
      "##ograph": 865,
      "relevant": 866,
      "mobile": 867,
      "make": 868,
      "better": 869,
      "##ices": 870,
      "offer": 871,
      "##tail": 872,
      "limit": 873,
      "following": 874,
      "##ick": 875,
      "##ents": 876,
      "allow": 877,
      "exercise": 878,
      "##tent": 879,
      "publ": 880,
      "##ted": 881,
      "mach": 882,
      "readable": 883,
      "machine": 884,
      "##erve": 885,
      "##ances": 886,
      "##ili": 887,
      "app": 888,
      "##btain": 889,
      "##ould": 890,
      "##ured": 891,
      "regard": 892,
      "ar": 893,
      "obtain": 894,
      "##ience": 895,
      "Intern": 896,
      "contract": 897,
      "work": 898,
      "##yst": 899,
      "##stances": 900,
      "common": 901,
      "like": 902,
      "##ystem": 903,
      "car": 904,
      "detail": 905,
      "prefer": 906,
      "adequate": 907,
      "avail": 908,
      "##ctif": 909,
      "rectif": 910,
      "Internet": 911,
      "dem": 912,
      "stor": 913,
      "comply": 914,
      "system": 915,
      "##ea": 916,
      "int": 917,
      "partners": 918,
      "exper": 919,
      "struct": 920,
      "##iew": 921,
      "ta": 922,
      "structured": 923,
      "##ink": 924,
      "type": 925,
      "##ied": 926,
      "sub": 927,
      "##ission": 928,
      "upd": 929,
      "##ames": 930,
      "erasure": 931,
      "This": 932,
      "each": 933,
      "gd": 934,
      "well": 935,
      "related": 936,
      "companies": 937,
      "commonly": 938,
      "gdpr": 939,
      "Custom": 940,
      "public": 941,
      "available": 942,
      "personally": 943,
      "transmit": 944,
      "communications": 945,
      "mess": 946,
      "laws": 947,
      "advertisements": 948,
      "receiv": 949,
      "functional": 950,
      "beha": 951,
      "sign": 952,
      "inv": 953,
      "existence": 954,
      "regarding": 955,
      "behavi": 956,
      "see": 957,
      "saf": 958,
      "experience": 959,
      "##work": 960,
      "Webs": 961,
      "log": 962,
      "##pri": 963,
      "affili": 964,
      "level": 965,
      "details": 966,
      "##priate": 967,
      "eff": 968,
      "eea": 969,
      "serve": 970,
      "proper": 971,
      "go": 972,
      "demograph": 973,
      "describ": 974,
      "newsletter": 975,
      "##li": 976,
      "When": 977,
      "behavior": 978,
      "##cept": 979,
      "appropriate": 980,
      "##tal": 981,
      "##use": 982,
      "Privacy": 983,
      "without": 984,
      "##plo": 985,
      "art": 986,
      "sim": 987,
      "accord": 988,
      "identifiable": 989,
      "fulf": 990,
      "preferences": 991,
      "For": 992,
      "po": 993,
      "##ener": 994,
      "##ilar": 995,
      "ens": 996,
      "correct": 997,
      "cir": 998,
      "cred": 999,
      "Your": 1000,
      "click": 1001,
      "circ": 1002,
      "inqu": 1003,
      "described": 1004,
      "##ise": 1005,
      "##are": 1006,
      "##etwork": 1007,
      "circum": 1008,
      "ii": 1009,
      "deli": 1010,
      "relating": 1011,
      "deliver": 1012,
      "End": 1013,
      "sites": 1014,
      "vol": 1015,
      "##unt": 1016,
      "store": 1017,
      "interact": 1018,
      "identify": 1019,
      "company": 1020,
      "place": 1021,
      "circumstances": 1022,
      "##ys": 1023,
      "##arily": 1024,
      "been": 1025,
      "who": 1026,
      "enfor": 1027,
      "ground": 1028,
      "technologies": 1029,
      "effect": 1030,
      "volunt": 1031,
      "her": 1032,
      "##iries": 1033,
      "gener": 1034,
      "##ring": 1035,
      "##ffor": 1036,
      "##ator": 1037,
      "main": 1038,
      "##ast": 1039,
      "##istr": 1040,
      "automat": 1041,
      "disclos": 1042,
      "similar": 1043,
      "intern": 1044,
      "accur": 1045,
      "support": 1046,
      "promotional": 1047,
      "fra": 1048,
      "##icle": 1049,
      "requests": 1050,
      "prevent": 1051,
      "submit": 1052,
      "credit": 1053,
      "sit": 1054,
      "note": 1055,
      "above": 1056,
      "functionality": 1057,
      "situ": 1058,
      "ec": 1059,
      "effor": 1060,
      "no": 1061,
      "pay": 1062,
      "pages": 1063,
      "way": 1064,
      "##tics": 1065,
      "inf": 1066,
      "##ases": 1067,
      "countries": 1068,
      "##ploy": 1069,
      "effort": 1070,
      "providing": 1071,
      "inquiries": 1072,
      "list": 1073,
      "non": 1074,
      "op": 1075,
      "##ft": 1076,
      "bel": 1077,
      "##gregated": 1078,
      "Our": 1079,
      "##side": 1080,
      "##pect": 1081,
      "them": 1082,
      "##ify": 1083,
      "unl": 1084,
      "rectification": 1085,
      "link": 1086,
      "via": 1087,
      "##ten": 1088,
      "belie": 1089,
      "stat": 1090,
      "Ad": 1091,
      "complete": 1092,
      "##cip": 1093,
      "##ved": 1094,
      "usage": 1095,
      "##ree": 1096,
      "##old": 1097,
      "employ": 1098,
      "commission": 1099,
      "Customer": 1100,
      "messages": 1101,
      "grounds": 1102,
      "Policy": 1103,
      "admin": 1104,
      "restriction": 1105,
      "##ware": 1106,
      "directly": 1107,
      "country": 1108,
      "card": 1109,
      "##urther": 1110,
      "activities": 1111,
      "update": 1112,
      "voluntarily": 1113,
      "Con": 1114,
      "outside": 1115,
      "ensure": 1116,
      "maintain": 1117,
      "event": 1118,
      "##sible": 1119,
      "##uard": 1120,
      "##edia": 1121,
      "resid": 1122,
      "Com": 1123,
      "##iod": 1124,
      "##de": 1125,
      "##blig": 1126,
      "period": 1127,
      "particip": 1128,
      "article": 1129,
      "fraud": 1130,
      "date": 1131,
      "oblig": 1132,
      "would": 1133,
      "analyz": 1134,
      "##ients": 1135,
      "##get": 1136,
      "##ific": 1137,
      "longer": 1138,
      "automatically": 1139,
      "further": 1140,
      "processed": 1141,
      "requested": 1142,
      "serv": 1143,
      "##oing": 1144,
      "##âs": 1145,
      "recip": 1146,
      "subscribe": 1147,
      "collection": 1148,
      "respond": 1149,
      "addition": 1150,
      "Website": 1151,
      "general": 1152,
      "sour": 1153,
      "##wise": 1154,
      "refer": 1155,
      "conn": 1156,
      "performance": 1157,
      "##py": 1158,
      "##ind": 1159,
      "##ari": 1160,
      "ads": 1161,
      "##iven": 1162,
      "regul": 1163,
      "basis": 1164,
      "sur": 1165,
      "phone": 1166,
      "affiliates": 1167,
      "enforce": 1168,
      "situation": 1169,
      "believe": 1170,
      "accurate": 1171,
      "they": 1172,
      "properly": 1173,
      "Cook": 1174,
      "Sites": 1175,
      "within": 1176,
      "one": 1177,
      "shared": 1178,
      "transferred": 1179,
      "cur": 1180,
      "##arget": 1181,
      "purch": 1182,
      "otherwise": 1183,
      "contacting": 1184,
      "area": 1185,
      "chang": 1186,
      "curr": 1187,
      "means": 1188,
      "concerns": 1189,
      "disclose": 1190,
      "take": 1191,
      "current": 1192,
      "##abl": 1193,
      "##vis": 1194,
      "enter": 1195,
      "remove": 1196,
      "recipients": 1197,
      "Ag": 1198,
      "ow": 1199,
      "section": 1200,
      "##ings": 1201,
      "local": 1202,
      "revok": 1203,
      "dom": 1204,
      "names": 1205,
      "vari": 1206,
      "##se": 1207,
      "##ons": 1208,
      "##atform": 1209,
      "disable": 1210,
      "activity": 1211,
      "revoke": 1212,
      "domain": 1213,
      "accordance": 1214,
      "fut": 1215,
      "hold": 1216,
      "##gan": 1217,
      "##onom": 1218,
      "##ogle": 1219,
      "These": 1220,
      "permit": 1221,
      "operating": 1222,
      "payment": 1223,
      "future": 1224,
      "##onomic": 1225,
      "##action": 1226,
      "resol": 1227,
      "cookie": 1228,
      "record": 1229,
      "limited": 1230,
      "surve": 1231,
      "##ass": 1232,
      "specified": 1233,
      "tra": 1234,
      "##alf": 1235,
      "often": 1236,
      "delet": 1237,
      "unsu": 1238,
      "behalf": 1239,
      "##going": 1240,
      "##thers": 1241,
      "accept": 1242,
      "enable": 1243,
      "meas": 1244,
      "unless": 1245,
      "statist": 1246,
      "##uter": 1247,
      "##ving": 1248,
      "inst": 1249,
      "specific": 1250,
      "##eguard": 1251,
      "safeguard": 1252,
      "analyze": 1253,
      "ent": 1254,
      "copy": 1255,
      "individuals": 1256,
      "fulfill": 1257,
      "others": 1258,
      "##ative": 1259,
      "extent": 1260,
      "computer": 1261,
      "mem": 1262,
      "requirements": 1263,
      "##erms": 1264,
      "total": 1265,
      "deter": 1266,
      "##acons": 1267,
      "shall": 1268,
      "lawful": 1269,
      "contractual": 1270,
      "carri": 1271,
      "participate": 1272,
      "state": 1273,
      "cla": 1274,
      "##ock": 1275,
      "demographics": 1276,
      "Go": 1277,
      "sw": 1278,
      "view": 1279,
      "uses": 1280,
      "ongoing": 1281,
      "##ell": 1282,
      "does": 1283,
      "##ordin": 1284,
      "receiving": 1285,
      "economic": 1286,
      "case": 1287,
      "##int": 1288,
      "coordin": 1289,
      "own": 1290,
      "measures": 1291,
      "bl": 1292,
      "media": 1293,
      "network": 1294,
      "want": 1295,
      "##ories": 1296,
      "Cookies": 1297,
      "##ets": 1298,
      "##ateg": 1299,
      "affect": 1300,
      "reasonable": 1301,
      "Aggregated": 1302,
      "target": 1303,
      "was": 1304,
      "there": 1305,
      "##ffic": 1306,
      "social": 1307,
      "unsubscribe": 1308,
      "Google": 1309,
      "##ety": 1310,
      "stand": 1311,
      "analytics": 1312,
      "Provid": 1313,
      "coordinator": 1314,
      "standard": 1315,
      "##cure": 1316,
      "conducts": 1317,
      "typ": 1318,
      "additional": 1319,
      "pool": 1320,
      "connection": 1321,
      "##po": 1322,
      "##ctions": 1323,
      "##ational": 1324,
      "##urn": 1325,
      "##ential": 1326,
      "located": 1327,
      "sources": 1328,
      "##ether": 1329,
      "##rit": 1330,
      "##bit": 1331,
      "while": 1332,
      "require": 1333,
      "invol": 1334,
      "cre": 1335,
      "elect": 1336,
      "pass": 1337,
      "##ss": 1338,
      "##sta": 1339,
      "##fore": 1340,
      "beacons": 1341,
      "includes": 1342,
      "soft": 1343,
      "again": 1344,
      "signific": 1345,
      "categ": 1346,
      "hist": 1347,
      "##ath": 1348,
      "organ": 1349,
      "whether": 1350,
      "port": 1351,
      "profile": 1352,
      "sending": 1353,
      "infring": 1354,
      "carried": 1355,
      "software": 1356,
      "St": 1357,
      "subs": 1358,
      "technical": 1359,
      "apps": 1360,
      "cases": 1361,
      "he": 1362,
      "##icate": 1363,
      "application": 1364,
      "previ": 1365,
      "categories": 1366,
      "previous": 1367,
      "might": 1368,
      "##hip": 1369,
      "##ital": 1370,
      "conf": 1371,
      "end": 1372,
      "offers": 1373,
      "##ractices": 1374,
      "stored": 1375,
      "him": 1376,
      "##dit": 1377,
      "##ost": 1378,
      "respect": 1379,
      "measure": 1380,
      "change": 1381,
      "into": 1382,
      "against": 1383,
      "##ner": 1384,
      "##ron": 1385,
      "pursu": 1386,
      "stop": 1387,
      "contest": 1388,
      "control": 1389,
      "##phone": 1390,
      "tracking": 1391,
      "review": 1392,
      "obligations": 1393,
      "notice": 1394,
      "sharing": 1395,
      "tele": 1396,
      "let": 1397,
      "##ony": 1398,
      "##arn": 1399,
      "union": 1400,
      "##soci": 1401,
      "search": 1402,
      "emails": 1403,
      "##istration": 1404,
      "resolve": 1405,
      "practices": 1406,
      "##ue": 1407,
      "##bers": 1408,
      "new": 1409,
      "una": 1410,
      "relation": 1411,
      "erase": 1412,
      "Ac": 1413,
      "sat": 1414,
      "##fter": 1415,
      "##isf": 1416,
      "##leg": 1417,
      "associ": 1418,
      "being": 1419,
      "assets": 1420,
      "possible": 1421,
      "open": 1422,
      "##onym": 1423,
      "An": 1424,
      "Part": 1425,
      "here": 1426,
      "##kes": 1427,
      "ref": 1428,
      "disclosure": 1429,
      "satisf": 1430,
      "mon": 1431,
      "mod": 1432,
      "##ement": 1433,
      "##gregate": 1434,
      "employe": 1435,
      "safeguards": 1436,
      "telephone": 1437,
      "give": 1438,
      "visits": 1439,
      "disabl": 1440,
      "##porting": 1441,
      "functions": 1442,
      "##velop": 1443,
      "group": 1444,
      "invest": 1445,
      "permitted": 1446,
      "am": 1447,
      "##fers": 1448,
      "comments": 1449,
      "what": 1450,
      "provider": 1451,
      "##istent": 1452,
      "##ogn": 1453,
      "##tention": 1454,
      "purchase": 1455,
      "##iqu": 1456,
      "secure": 1457,
      "##aged": 1458,
      "manage": 1459,
      "various": 1460,
      "block": 1461,
      "electron": 1462,
      "##now": 1463,
      "##pa": 1464,
      "##word": 1465,
      "reporting": 1466,
      "##igital": 1467,
      "##ult": 1468,
      "transfers": 1469,
      "##eld": 1470,
      "advertisers": 1471,
      "types": 1472,
      "previously": 1473,
      "Ap": 1474,
      "call": 1475,
      "##gra": 1476,
      "anonym": 1477,
      "transaction": 1478,
      "recogn": 1479,
      "phys": 1480,
      "##ather": 1481,
      "pi": 1482,
      "##ield": 1483,
      "##ty": 1484,
      "##mine": 1485,
      "eng": 1486,
      "agree": 1487,
      "customers": 1488,
      "needed": 1489,
      "storage": 1490,
      "demographic": 1491,
      "iii": 1492,
      "determine": 1493,
      "password": 1494,
      "unauthor": 1495,
      "investig": 1496,
      "##ique": 1497,
      "physical": 1498,
      "mat": 1499,
      "tas": 1500,
      "##ck": 1501,
      "enh": 1502,
      "addresses": 1503,
      "applications": 1504,
      "aggregate": 1505,
      "##actions": 1506,
      "full": 1507,
      "targeted": 1508,
      "task": 1509,
      "fin": 1510,
      "his": 1511,
      "inc": 1512,
      "product": 1513,
      "develop": 1514,
      "listed": 1515,
      "dur": 1516,
      "ver": 1517,
      "protected": 1518,
      "learn": 1519,
      "technology": 1520,
      "portions": 1521,
      "electronic": 1522,
      "ID": 1523,
      "Pl": 1524,
      "conduct": 1525,
      "surveys": 1526,
      "create": 1527,
      "monit": 1528,
      "rely": 1529,
      "processes": 1530,
      "##ols": 1531,
      "contin": 1532,
      "reasons": 1533,
      "offered": 1534,
      "traffic": 1535,
      "Acc": 1536,
      "bill": 1537,
      "given": 1538,
      "know": 1539,
      "pr": 1540,
      "pri": 1541,
      "##ox": 1542,
      "##rant": 1543,
      "##ccess": 1544,
      "##ps": 1545,
      "##put": 1546,
      "inform": 1547,
      "##ider": 1548,
      "unique": 1549,
      "envis": 1550,
      "transmitted": 1551,
      "unauthorized": 1552,
      "envisaged": 1553,
      "##ab": 1554,
      "##enc": 1555,
      "progra": 1556,
      "success": 1557,
      "##vern": 1558,
      "step": 1559,
      "transactions": 1560,
      "complaints": 1561,
      "point": 1562,
      "administer": 1563,
      "involved": 1564,
      "monitor": 1565,
      "gather": 1566,
      "person": 1567,
      "turn": 1568,
      "##iance": 1569,
      "##led": 1570,
      "##ancial": 1571,
      "whom": 1572,
      "agre": 1573,
      "systems": 1574,
      "statistical": 1575,
      "Account": 1576,
      "steps": 1577,
      "EU": 1578,
      "aud": 1579,
      "free": 1580,
      "polic": 1581,
      "##eo": 1582,
      "##ping": 1583,
      "made": 1584,
      "personalize": 1585,
      "before": 1586,
      "##ender": 1587,
      "select": 1588,
      "##cript": 1589,
      "User": 1590,
      "assist": 1591,
      "govern": 1592,
      "infringement": 1593,
      "Un": 1594,
      "dpo": 1595,
      "##ters": 1596,
      "than": 1597,
      "def": 1598,
      "mean": 1599,
      "##plement": 1600,
      "analys": 1601,
      "changes": 1602,
      "instruct": 1603,
      "pursuant": 1604,
      "refuse": 1605,
      "mer": 1606,
      "â¢": 1607,
      "##ient": 1608,
      "##ced": 1609,
      "##MD": 1610,
      "##ross": 1611,
      "decl": 1612,
      "consider": 1613,
      "visited": 1614,
      "disput": 1615,
      "effectiven": 1616,
      "resident": 1617,
      "agreements": 1618,
      "policies": 1619,
      "effectiveness": 1620,
      "file": 1621,
      "gender": 1622,
      "ve": 1623,
      "##tc": 1624,
      "##pan": 1625,
      "##ally": 1626,
      "issu": 1627,
      "exp": 1628,
      "##ends": 1629,
      "relations": 1630,
      "communicate": 1631,
      "fulfil": 1632,
      "referred": 1633,
      "Analy": 1634,
      "billing": 1635,
      "Other": 1636,
      "PI": 1637,
      "after": 1638,
      "most": 1639,
      "vend": 1640,
      "##ict": 1641,
      "##land": 1642,
      "inac": 1643,
      "report": 1644,
      "retention": 1645,
      "##ang": 1646,
      "##play": 1647,
      "except": 1648,
      "##uses": 1649,
      "##ays": 1650,
      "identifiers": 1651,
      "platform": 1652,
      "many": 1653,
      "changing": 1654,
      "member": 1655,
      "associated": 1656,
      "financial": 1657,
      "Platform": 1658,
      "disputes": 1659,
      "19": 1660,
      "Identif": 1661,
      "fre": 1662,
      "##xt": 1663,
      "##ert": 1664,
      "whose": 1665,
      "alleg": 1666,
      "collects": 1667,
      "feel": 1668,
      "##ization": 1669,
      "WebMD": 1670,
      "carry": 1671,
      "disclosed": 1672,
      "disabled": 1673,
      "anonymous": 1674,
      "meaning": 1675,
      "inaccur": 1676,
      "bir": 1677,
      "ca": 1678,
      "cour": 1679,
      "etc": 1680,
      "sp": 1681,
      "##ined": 1682,
      "then": 1683,
      "acqu": 1684,
      "##ification": 1685,
      "registration": 1686,
      "perm": 1687,
      "corpor": 1688,
      "internal": 1689,
      "ways": 1690,
      "enforcement": 1691,
      "PII": 1692,
      "birth": 1693,
      "De": 1694,
      "sc": 1695,
      "terms": 1696,
      "##av": 1697,
      "##ness": 1698,
      "##tt": 1699,
      "##alth": 1700,
      "personalized": 1701,
      "detect": 1702,
      "##ods": 1703,
      "interactions": 1704,
      "##istrative": 1705,
      "regulation": 1706,
      "records": 1707,
      "deleted": 1708,
      "letter": 1709,
      "Digital": 1710,
      "Ne": 1711,
      "Network": 1712,
      "hand": 1713,
      "writ": 1714,
      "##rance": 1715,
      "##ens": 1716,
      "consum": 1717,
      "consequ": 1718,
      "authorities": 1719,
      "customize": 1720,
      "##eepsta": 1721,
      "##fully": 1722,
      "promotions": 1723,
      "postal": 1724,
      "rectify": 1725,
      "safety": 1726,
      "servers": 1727,
      "history": 1728,
      "government": 1729,
      "relationship": 1730,
      "alleged": 1731,
      "pat": 1732,
      "par": 1733,
      "##cing": 1734,
      "tools": 1735,
      "##asible": 1736,
      "across": 1737,
      "should": 1738,
      "##ended": 1739,
      "feasible": 1740,
      "display": 1741,
      "Third": 1742,
      "accounting": 1743,
      "technically": 1744,
      "Websites": 1745,
      "administrative": 1746,
      "clauses": 1747,
      "Provide": 1748,
      "consequences": 1749,
      "##eepstakes": 1750,
      "10": 1751,
      "22": 1752,
      "Qu": 1753,
      "Se": 1754,
      "over": 1755,
      "sal": 1756,
      "vi": 1757,
      "##iable": 1758,
      "##lc": 1759,
      "proble": 1760,
      "least": 1761,
      "##ailor": 1762,
      "enc": 1763,
      "compliance": 1764,
      "helps": 1765,
      "communication": 1766,
      "##portun": 1767,
      "responsible": 1768,
      "according": 1769,
      "opportun": 1770,
      "enhance": 1771,
      "analysis": 1772,
      "Col": 1773,
      "Terms": 1774,
      "tailor": 1775,
      "##du": 1776,
      "##ho": 1777,
      "##ply": 1778,
      "##ond": 1779,
      "##esent": 1780,
      "##ank": 1781,
      "code": 1782,
      "browsing": 1783,
      "allows": 1784,
      "property": 1785,
      "info": 1786,
      "sweepstakes": 1787,
      "Analytics": 1788,
      "corporate": 1789,
      "Collect": 1790,
      "ge": 1791,
      "hind": 1792,
      "oc": 1793,
      "upon": 1794,
      "##not": 1795,
      "cannot": 1796,
      "adequacy": 1797,
      "design": 1798,
      "newsletters": 1799,
      "Contact": 1800,
      "significance": 1801,
      "employee": 1802,
      "decline": 1803,
      "Identifiable": 1804,
      "meaningful": 1805,
      "pattern": 1806,
      "hindrance": 1807,
      "Non": 1808,
      "iv": 1809,
      "mis": 1810,
      "##cast": 1811,
      "##own": 1812,
      "consistent": 1813,
      "options": 1814,
      "##ember": 1815,
      "special": 1816,
      "Where": 1817,
      "logic": 1818,
      "efforts": 1819,
      "claim": 1820,
      "patterns": 1821,
      "Re": 1822,
      "So": 1823,
      "bo": 1824,
      "fir": 1825,
      "grant": 1826,
      "##ited": 1827,
      "datab": 1828,
      "areas": 1829,
      "commer": 1830,
      "disc": 1831,
      "aggregated": 1832,
      "devices": 1833,
      "international": 1834,
      "lawfulness": 1835,
      "verify": 1836,
      "sell": 1837,
      "##lo": 1838,
      "##toc": 1839,
      "##ying": 1840,
      "##val": 1841,
      "##reet": 1842,
      "shop": 1843,
      "Personally": 1844,
      "mailing": 1845,
      "internet": 1846,
      "Comcast": 1847,
      "instructions": 1848,
      "dif": 1849,
      "##di": 1850,
      "##ways": 1851,
      "instances": 1852,
      "proced": 1853,
      "orders": 1854,
      "##chan": 1855,
      "comb": 1856,
      "##oss": 1857,
      "adv": 1858,
      "##ferent": 1859,
      "subjects": 1860,
      "agents": 1861,
      "survey": 1862,
      "members": 1863,
      "viewed": 1864,
      "recognize": 1865,
      "vendors": 1866,
      "htt": 1867,
      "jur": 1868,
      "live": 1869,
      "sent": 1870,
      "##fact": 1871,
      "##erial": 1872,
      "##isdi": 1873,
      "condit": 1874,
      "decisions": 1875,
      "##pons": 1876,
      "active": 1877,
      "##rypt": 1878,
      "response": 1879,
      "reasonab": 1880,
      "##ocation": 1881,
      "approved": 1882,
      "Advertis": 1883,
      "server": 1884,
      "significant": 1885,
      "merg": 1886,
      "occur": 1887,
      "different": 1888,
      "jurisdi": 1889,
      "reasonably": 1890,
      "age": 1891,
      "same": 1892,
      "vers": 1893,
      "##aw": 1894,
      "##ither": 1895,
      "##ired": 1896,
      "##ution": 1897,
      "trends": 1898,
      "implement": 1899,
      "affiliated": 1900,
      "health": 1901,
      "sale": 1902,
      "Social": 1903,
      "commercial": 1904,
      "How": 1905,
      "Please": 1906,
      "Sh": 1907,
      "dest": 1908,
      "down": 1909,
      "either": 1910,
      "fac": 1911,
      "ident": 1912,
      "loss": 1913,
      "##ough": 1914,
      "##itz": 1915,
      "##roll": 1916,
      "usern": 1917,
      "ret": 1918,
      "##ession": 1919,
      "##idi": 1920,
      "##irm": 1921,
      "habit": 1922,
      "always": 1923,
      "ability": 1924,
      "##ift": 1925,
      "show": 1926,
      "shield": 1927,
      "visiting": 1928,
      "emailing": 1929,
      "withdrawal": 1930,
      "choices": 1931,
      "links": 1932,
      "organiz": 1933,
      "prior": 1934,
      "problems": 1935,
      "encrypt": 1936,
      "##tocol": 1937,
      "identity": 1938,
      "20": 1939,
      "CA": 1940,
      "pot": 1941,
      "##isl": 1942,
      "##ild": 1943,
      "##iles": 1944,
      "contain": 1945,
      "##very": 1946,
      "legisl": 1947,
      "##ually": 1948,
      "receives": 1949,
      "clicking": 1950,
      "events": 1951,
      "residence": 1952,
      "statistics": 1953,
      "material": 1954,
      "audit": 1955,
      "conditions": 1956,
      "potential": 1957,
      "Su": 1958,
      "games": 1959,
      "sci": 1960,
      "##FA": 1961,
      "##we": 1962,
      "##atory": 1963,
      "##entific": 1964,
      "once": 1965,
      "enabl": 1966,
      "char": 1967,
      "follows": 1968,
      "needs": 1969,
      "operate": 1970,
      "post": 1971,
      "remo": 1972,
      "Customers": 1973,
      "received": 1974,
      "Comm": 1975,
      "networks": 1976,
      "subscript": 1977,
      "subsidi": 1978,
      "confirm": 1979,
      "agreement": 1980,
      "claims": 1981,
      "first": 1982,
      "granted": 1983,
      "##load": 1984,
      "username": 1985,
      "scientific": 1986,
      "Al": 1987,
      "Te": 1988,
      "book": 1989,
      "eas": 1990,
      "llc": 1991,
      "##uage": 1992,
      "##ward": 1993,
      "##orical": 1994,
      "ins": 1995,
      "deal": 1996,
      "##tection": 1997,
      "##elf": 1998,
      "mechan": 1999,
      "##blish": 2000,
      "agenc": 2001,
      "actions": 2002,
      "respons": 2003,
      "correction": 2004,
      "remember": 2005,
      "intended": 2006,
      "message": 2007,
      "variety": 2008,
      "##stablish": 2009,
      "historical": 2010,
      "##anguage": 2011,
      "inaccurate": 2012,
      "occurred": 2013,
      "mechanis": 2014,
      "12": 2015,
      "11": 2016,
      "Business": 2017,
      "Eu": 2018,
      "On": 2019,
      "bu": 2020,
      "establish": 2021,
      "language": 2022,
      "val": 2023,
      "##aries": 2024,
      "dec": 2025,
      "##oms": 2026,
      "reside": 2027,
      "##els": 2028,
      "##ags": 2029,
      "apply": 2030,
      "generally": 2031,
      "deletion": 2032,
      "entity": 2033,
      "modify": 2034,
      "issues": 2035,
      "misuse": 2036,
      "version": 2037,
      "Requ": 2038,
      "gu": 2039,
      "job": 2040,
      "##back": 2041,
      "##RL": 2042,
      "##lear": 2043,
      "##omet": 2044,
      "partner": 2045,
      "##imes": 2046,
      "supply": 2047,
      "exercised": 2048,
      "betwe": 2049,
      "obtained": 2050,
      "seek": 2051,
      "clicked": 2052,
      "identifying": 2053,
      "regulatory": 2054,
      "satisfying": 2055,
      "during": 2056,
      "##eople": 2057,
      "writing": 2058,
      "both": 2059,
      "download": 2060,
      "European": 2061,
      "##ometimes": 2062,
      "between": 2063,
      "URL": 2064,
      "tell": 2065,
      "##rop": 2066,
      "##ash": 2067,
      "##ire": 2068,
      "deem": 2069,
      "##gether": 2070,
      "accessing": 2071,
      "##ending": 2072,
      "official": 2073,
      "authorized": 2074,
      "question": 2075,
      "identifier": 2076,
      "registered": 2077,
      "Users": 2078,
      "##egr": 2079,
      "integr": 2080,
      "behavioral": 2081,
      "unlaw": 2082,
      "continue": 2083,
      "shopping": 2084,
      "facil": 2085,
      "subsidiaries": 2086,
      "responses": 2087,
      "Sta": 2088,
      "clear": 2089,
      "fa": 2090,
      "hum": 2091,
      "spons": 2092,
      "tags": 2093,
      "zip": 2094,
      "##eck": 2095,
      "##hi": 2096,
      "##ru": 2097,
      "##pages": 2098,
      "##ken": 2099,
      "##RFA": 2100,
      "##espon": 2101,
      "together": 2102,
      "##itled": 2103,
      "##uring": 2104,
      "meth": 2105,
      "##lling": 2106,
      "numbers": 2107,
      "browsers": 2108,
      "sap": 2109,
      "functionalities": 2110,
      "delivery": 2111,
      "prevention": 2112,
      "submitted": 2113,
      "referring": 2114,
      "organis": 2115,
      "engage": 2116,
      "duration": 2117,
      "program": 2118,
      "##avig": 2119,
      "Advertising": 2120,
      "merger": 2121,
      "CARFA": 2122,
      "##espond": 2123,
      "CARFAX": 2124,
      "jo": 2125,
      "navig": 2126,
      "people": 2127,
      "sta": 2128,
      "sometimes": 2129,
      "think": 2130,
      "things": 2131,
      "init": 2132,
      "##itate": 2133,
      "##edback": 2134,
      "##rib": 2135,
      "provides": 2136,
      "alter": 2137,
      "she": 2138,
      "doing": 2139,
      "optim": 2140,
      "forms": 2141,
      "asked": 2142,
      "manner": 2143,
      "source": 2144,
      "determin": 2145,
      "contests": 2146,
      "freed": 2147,
      "human": 2148,
      "##hibit": 2149,
      "Log": 2150,
      "##ds": 2151,
      "##ators": 2152,
      "##ream": 2153,
      "parts": 2154,
      "##ples": 2155,
      "result": 2156,
      "##ants": 2157,
      "sole": 2158,
      "text": 2159,
      "identifies": 2160,
      "identification": 2161,
      "Products": 2162,
      "operations": 2163,
      "Use": 2164,
      "assess": 2165,
      "offerings": 2166,
      "connect": 2167,
      "confid": 2168,
      "Partners": 2169,
      "relying": 2170,
      "programs": 2171,
      "court": 2172,
      "opportunity": 2173,
      "##valu": 2174,
      "decide": 2175,
      "deemed": 2176,
      "alteration": 2177,
      "freedoms": 2178,
      "Ex": 2179,
      "Over": 2180,
      "bank": 2181,
      "evalu": 2182,
      "nor": 2183,
      "qual": 2184,
      "vide": 2185,
      "##ap": 2186,
      "##az": 2187,
      "##les": 2188,
      "##fy": 2189,
      "##flow": 2190,
      "##cat": 2191,
      "##isk": 2192,
      "##ised": 2193,
      "##ention": 2194,
      "compe": 2195,
      "trou": 2196,
      "interaction": 2197,
      "##ively": 2198,
      "##uss": 2199,
      "feedback": 2200,
      "improving": 2201,
      "##ographic": 2202,
      "Compan": 2203,
      "satisfied": 2204,
      "employees": 2205,
      "pix": 2206,
      "present": 2207,
      "platforms": 2208,
      "consumer": 2209,
      "##hoot": 2210,
      "return": 2211,
      "organizations": 2212,
      "Stack": 2213,
      "Overflow": 2214,
      "##fycat": 2215,
      "compelling": 2216,
      "Face": 2217,
      "Media": 2218,
      "NI": 2219,
      "US": 2220,
      "files": 2221,
      "sens": 2222,
      "were": 2223,
      "##oid": 2224,
      "##opt": 2225,
      "##ca": 2226,
      "##box": 2227,
      "##just": 2228,
      "##11": 2229,
      "##EA": 2230,
      "##erland": 2231,
      "##eshoot": 2232,
      "##ights": 2233,
      "dep": 2234,
      "##omm": 2235,
      "adjust": 2236,
      "##amily": 2237,
      "##bleshoot": 2238,
      "##aging": 2239,
      "feature": 2240,
      "concerned": 2241,
      "##ruction": 2242,
      "avoid": 2243,
      "login": 2244,
      "Content": 2245,
      "maintaining": 2246,
      "affecting": 2247,
      "among": 2248,
      "Appl": 2249,
      "pii": 2250,
      "successfact": 2251,
      "defend": 2252,
      "discuss": 2253,
      "https": 2254,
      "destruction": 2255,
      "##itzerland": 2256,
      "organisations": 2257,
      "quality": 2258,
      "troubleshoot": 2259,
      "successfactors": 2260,
      "Gfycat": 2261,
      "Span": 2262,
      "every": 2263,
      "hard": 2264,
      "risk": 2265,
      "sm": 2266,
      "session": 2267,
      "ter": 2268,
      "##ian": 2269,
      "##book": 2270,
      "##00": 2271,
      "##PS": 2272,
      "##Dict": 2273,
      "provis": 2274,
      "aspect": 2275,
      "##osen": 2276,
      "Inc": 2277,
      "abs": 2278,
      "street": 2279,
      "times": 2280,
      "chosen": 2281,
      "##ayer": 2282,
      "##ishDict": 2283,
      "quer": 2284,
      "Process": 2285,
      "goods": 2286,
      "accuracy": 2287,
      "App": 2288,
      "continu": 2289,
      "cause": 2290,
      "permiss": 2291,
      "News": 2292,
      "databases": 2293,
      "procedures": 2294,
      "jurisdiction": 2295,
      "Commun": 2296,
      "confirmation": 2297,
      "agencies": 2298,
      "##ropbox": 2299,
      "facilitate": 2300,
      "Facebook": 2301,
      "SpanishDict": 2302,
      "Tr": 2303,
      "br": 2304,
      "put": 2305,
      "wr": 2306,
      "ww": 2307,
      "##games": 2308,
      "##bt": 2309,
      "##anta": 2310,
      "##ently": 2311,
      "##ased": 2312,
      "##read": 2313,
      "##utions": 2314,
      "##ampa": 2315,
      "ship": 2316,
      "accounts": 2317,
      "exercising": 2318,
      "correspond": 2319,
      "lists": 2320,
      "entitled": 2321,
      "management": 2322,
      "called": 2323,
      "reports": 2324,
      "parent": 2325,
      "##ondon": 2326,
      "legislator": 2327,
      "confidential": 2328,
      "norm": 2329,
      "sensit": 2330,
      "www": 2331,
      "##ampaign": 2332,
      "EEA": 2333,
      "Opt": 2334,
      "dist": 2335,
      "edu": 2336,
      "family": 2337,
      "##ability": 2338,
      "##me": 2339,
      "##mission": 2340,
      "##ves": 2341,
      "reject": 2342,
      "suit": 2343,
      "##reat": 2344,
      "##ott": 2345,
      "notices": 2346,
      "notify": 2347,
      "still": 2348,
      "item": 2349,
      "##aily": 2350,
      "child": 2351,
      "check": 2352,
      "##ustry": 2353,
      "##ives": 2354,
      "There": 2355,
      "##izlet": 2356,
      "##ffili": 2357,
      "customized": 2358,
      "Usage": 2359,
      "phot": 2360,
      "updates": 2361,
      "effects": 2362,
      "obligation": 2363,
      "purchases": 2364,
      "entered": 2365,
      "standards": 2366,
      "controls": 2367,
      "Party": 2368,
      "model": 2369,
      "##ency": 2370,
      "successfully": 2371,
      "combine": 2372,
      "materials": 2373,
      "Request": 2374,
      "normally": 2375,
      "As": 2376,
      "Air": 2377,
      "Em": 2378,
      "It": 2379,
      "ben": 2380,
      "campaign": 2381,
      "fri": 2382,
      "find": 2383,
      "move": 2384,
      "tw": 2385,
      "##ef": 2386,
      "##ifor": 2387,
      "##lined": 2388,
      "##nia": 2389,
      "##cy": 2390,
      "##vice": 2391,
      "top": 2392,
      "##alifor": 2393,
      "##ersistent": 2394,
      "having": 2395,
      "##ifications": 2396,
      "unable": 2397,
      "outlined": 2398,
      "compet": 2399,
      "visitor": 2400,
      "##uthent": 2401,
      "wishes": 2402,
      "They": 2403,
      "takes": 2404,
      "enforcing": 2405,
      "payments": 2406,
      "instance": 2407,
      "statement": 2408,
      "switzerland": 2409,
      "affects": 2410,
      "infringes": 2411,
      "investigate": 2412,
      "expir": 2413,
      "express": 2414,
      "frequ": 2415,
      "Device": 2416,
      "subscription": 2417,
      "Techn": 2418,
      "easily": 2419,
      "stam": 2420,
      "write": 2421,
      "##alifornia": 2422,
      "Am": 2423,
      "By": 2424,
      "Rel": 2425,
      "Some": 2426,
      "With": 2427,
      "bott": 2428,
      "di": 2429,
      "el": 2430,
      "hos": 2431,
      "il": 2432,
      "national": 2433,
      "pop": 2434,
      "tict": 2435,
      "ut": 2436,
      "##self": 2437,
      "##gg": 2438,
      "##ound": 2439,
      "##orr": 2440,
      "##erse": 2441,
      "##arant": 2442,
      "reach": 2443,
      "datapro": 2444,
      "##ilgames": 2445,
      "##ceed": 2446,
      "contacts": 2447,
      "meet": 2448,
      "industry": 2449,
      "specifically": 2450,
      "Protocol": 2451,
      "promotion": 2452,
      "performing": 2453,
      "recomm": 2454,
      "taken": 2455,
      "good": 2456,
      "interactive": 2457,
      "regulations": 2458,
      "travel": 2459,
      "##legal": 2460,
      "course": 2461,
      "spilgames": 2462,
      "tailored": 2463,
      "Collected": 2464,
      "habitual": 2465,
      "mechanisms": 2466,
      "valid": 2467,
      "guarant": 2468,
      "methods": 2469,
      "optimize": 2470,
      "solely": 2471,
      "queries": 2472,
      "##antage": 2473,
      "shipping": 2474,
      "expiration": 2475,
      "bottom": 2476,
      "illegal": 2477,
      "tictail": 2478,
      "dataprotection": 2479,
      "guarante": 2480,
      "3ds": 2481,
      "89": 2482,
      "Ch": 2483,
      "Daily": 2484,
      "authent": 2485,
      "best": 2486,
      "dou": 2487,
      "fact": 2488,
      "id": 2489,
      "##spect": 2490,
      "##nb": 2491,
      "##by": 2492,
      "##bnb": 2493,
      "##ora": 2494,
      "produ": 2495,
      "org": 2496,
      "##igin": 2497,
      "included": 2498,
      "whenever": 2499,
      "interested": 2500,
      "suppl": 2501,
      "##agn": 2502,
      "##obe": 2503,
      "##motion": 2504,
      "##ouse": 2505,
      "contractors": 2506,
      "care": 2507,
      "detailed": 2508,
      "stores": 2509,
      "publicly": 2510,
      "Cont": 2511,
      "##fficer": 2512,
      "amend": 2513,
      "investigation": 2514,
      "acquired": 2515,
      "Quizlet": 2516,
      "Security": 2517,
      "sensitive": 2518,
      "items": 2519,
      "Airbnb": 2520,
      "Dailymotion": 2521,
      "Cl": 2522,
      "Dropbox": 2523,
      "Grou": 2524,
      "Leg": 2525,
      "Location": 2526,
      "aware": 2527,
      "crit": 2528,
      "digital": 2529,
      "edit": 2530,
      "get": 2531,
      "last": 2532,
      "london": 2533,
      "##eam": 2534,
      "##sw": 2535,
      "##ub": 2536,
      "##af": 2537,
      "##more": 2538,
      "##wift": 2539,
      "##eria": 2540,
      "##organ": 2541,
      "##ition": 2542,
      "##itiz": 2543,
      "##icient": 2544,
      "reorgan": 2545,
      "##ancing": 2546,
      "##though": 2547,
      "##terest": 2548,
      "##ute": 2549,
      "coll": 2550,
      "expl": 2551,
      "united": 2552,
      "accessed": 2553,
      "commit": 2554,
      "##izing": 2555,
      "##ief": 2556,
      "mails": 2557,
      "businesses": 2558,
      "identified": 2559,
      "##ially": 2560,
      "limitation": 2561,
      "subpo": 2562,
      "efficient": 2563,
      "automatic": 2564,
      "Add": 2565,
      "Cookie": 2566,
      "entities": 2567,
      "respective": 2568,
      "measurement": 2569,
      "disabling": 2570,
      "New": 2571,
      "consumers": 2572,
      "viol": 2573,
      "advantage": 2574,
      "However": 2575,
      "##rupt": 2576,
      "continued": 2577,
      "brand": 2578,
      "Email": 2579,
      "competent": 2580,
      "##orrect": 2581,
      "doubt": 2582,
      "criteria": 2583,
      "subpoen": 2584,
      "Nick": 2585,
      "action": 2586,
      "could": 2587,
      "found": 2588,
      "kind": 2589,
      "persistent": 2590,
      "table": 2591,
      "##iS": 2592,
      "##lash": 2593,
      "##nels": 2594,
      "##co": 2595,
      "##br": 2596,
      "##ven": 2597,
      "##ort": 2598,
      "youâ": 2599,
      "prohibit": 2600,
      "origin": 2601,
      "##arm": 2602,
      "cover": 2603,
      "forth": 2604,
      "foreg": 2605,
      "Ind": 2606,
      "##itepages": 2607,
      "att": 2608,
      "reserve": 2609,
      "transmission": 2610,
      "import": 2611,
      "community": 2612,
      "restrictions": 2613,
      "Whitepages": 2614,
      "delivering": 2615,
      "similarly": 2616,
      "situations": 2617,
      "participating": 2618,
      "responding": 2619,
      "viewing": 2620,
      "networking": 2621,
      "Providers": 2622,
      "typically": 2623,
      "Steam": 2624,
      "openx": 2625,
      "opened": 2626,
      "verification": 2627,
      "selecting": 2628,
      "assistance": 2629,
      "Quora": 2630,
      "Secure": 2631,
      "opportunities": 2632,
      "designed": 2633,
      "faith": 2634,
      "avoidance": 2635,
      "aspects": 2636,
      "absence": 2637,
      "diagn": 2638,
      "##ggest": 2639,
      "recommend": 2640,
      "NickiS": 2641,
      "NickiSwift": 2642,
      "California": 2643,
      "En": 2644,
      "Op": 2645,
      "Out": 2646,
      "SS": 2647,
      "Wi": 2648,
      "back": 2649,
      "cart": 2650,
      "cert": 2651,
      "must": 2652,
      "uk": 2653,
      "war": 2654,
      "##ex": 2655,
      "##iate": 2656,
      "##day": 2657,
      "##ave": 2658,
      "##ton": 2659,
      "##ature": 2660,
      "answ": 2661,
      "##ense": 2662,
      "proceed": 2663,
      "##ange": 2664,
      "forum": 2665,
      "##ervation": 2666,
      "suggest": 2667,
      "##uters": 2668,
      "##olocation": 2669,
      "notifications": 2670,
      "##acies": 2671,
      "alert": 2672,
      "##stream": 2673,
      "consented": 2674,
      "##soft": 2675,
      "lay": 2676,
      "chat": 2677,
      "chief": 2678,
      "supplement": 2679,
      "office": 2680,
      "option": 2681,
      "##iews": 2682,
      "requires": 2683,
      "usersâ": 2684,
      "retained": 2685,
      "plac": 2686,
      "##ources": 2687,
      "##present": 2688,
      "existing": 2689,
      "publish": 2690,
      "tax": 2691,
      "logs": 2692,
      "corrected": 2693,
      "effective": 2694,
      "employment": 2695,
      "contractually": 2696,
      "blog": 2697,
      "State": 2698,
      "incorrect": 2699,
      "veh": 2700,
      "inaccuracies": 2701,
      "geographic": 2702,
      "database": 2703,
      "implemented": 2704,
      "auditing": 2705,
      "charact": 2706,
      "removed": 2707,
      "booking": 2708,
      "unlawfully": 2709,
      "navigate": 2710,
      "bankrupt": 2711,
      "pixel": 2712,
      "discussed": 2713,
      "correspondence": 2714,
      "confidentiality": 2715,
      "distrib": 2716,
      "benef": 2717,
      "Technolog": 2718,
      "popular": 2719,
      "suppli": 2720,
      "Legal": 2721,
      "reorganization": 2722,
      "tablet": 2723,
      "prohibited": 2724,
      "foregoing": 2725,
      "Open": 2726,
      "bankruptcy": 2727,
      "17": 2728,
      "GPS": 2729,
      "Man": 2730,
      "Not": 2731,
      "Reg": 2732,
      "Sw": 2733,
      "Send": 2734,
      "Tri": 2735,
      "Target": 2736,
      "ater": 2737,
      "cal": 2738,
      "equ": 2739,
      "gar": 2740,
      "gives": 2741,
      "lat": 2742,
      "my": 2743,
      "old": 2744,
      "priv": 2745,
      "tit": 2746,
      "test": 2747,
      "##ear": 2748,
      "##ug": 2749,
      "##Pad": 2750,
      "##EN": 2751,
      "##icro": 2752,
      "##eng": 2753,
      "protocol": 2754,
      "yourself": 2755,
      "represent": 2756,
      "##rive": 2757,
      "deact": 2758,
      "debit": 2759,
      "collectively": 2760,
      "##ified": 2761,
      "trust": 2762,
      "env": 2763,
      "optional": 2764,
      "transferring": 2765,
      "legally": 2766,
      "assign": 2767,
      "assert": 2768,
      "clicks": 2769,
      "ec1": 2770,
      "administration": 2771,
      "Cons": 2772,
      "##uardian": 2773,
      "entering": 2774,
      "resolving": 2775,
      "deleting": 2776,
      "config": 2777,
      "england": 2778,
      "investigations": 2779,
      "enhancing": 2780,
      "pres": 2781,
      "United": 2782,
      "handled": 2783,
      "written": 2784,
      "adverse": 2785,
      "Shield": 2786,
      "enables": 2787,
      "joint": 2788,
      "determined": 2789,
      "video": 2790,
      "Company": 2791,
      "hardware": 2792,
      "two": 2793,
      "Related": 2794,
      "hosting": 2795,
      "util": 2796,
      "guarantee": 2797,
      "Address": 2798,
      "benefit": 2799,
      "OpenX": 2800,
      "atera": 2801,
      "garmin": 2802,
      "private": 2803,
      "deactiv": 2804,
      "8af": 2805,
      "At": 2806,
      "All": 2807,
      "Im": 2808,
      "Market": 2809,
      "Sp": 2810,
      "den": 2811,
      "just": 2812,
      "mo": 2813,
      "pertain": 2814,
      "yard": 2815,
      "##ix": 2816,
      "##iences": 2817,
      "##after": 2818,
      "##td": 2819,
      "##ood": 2820,
      "##press": 2821,
      "##eric": 2822,
      "##ont": 2823,
      "##oun": 2824,
      "##ropa": 2825,
      "##icated": 2826,
      "##als": 2827,
      "reed": 2828,
      "##ervention": 2829,
      "white": 2830,
      "processors": 2831,
      "##reen": 2832,
      "useful": 2833,
      "although": 2834,
      "##istics": 2835,
      "##cise": 2836,
      "sever": 2837,
      "##ffice": 2838,
      "applies": 2839,
      "europa": 2840,
      "close": 2841,
      "choice": 2842,
      "managing": 2843,
      "demand": 2844,
      "complying": 2845,
      "intervention": 2846,
      "updated": 2847,
      "logg": 2848,
      "going": 2849,
      "clickstream": 2850,
      "frame": 2851,
      "preventing": 2852,
      "status": 2853,
      "residing": 2854,
      "Street": 2855,
      "Parties": 2856,
      "match": 2857,
      "developing": 2858,
      "prim": 2859,
      "monitoring": 2860,
      "governmental": 2861,
      "significantly": 2862,
      "dealers": 2863,
      "established": 2864,
      "integrity": 2865,
      "sponsor": 2866,
      "sponsors": 2867,
      "provision": 2868,
      "permissions": 2869,
      "eduPad": 2870,
      "campaigns": 2871,
      "factory": 2872,
      "##itizen": 2873,
      "collar": 2874,
      "SSL": 2875,
      "layout": 2876,
      "suppliers": 2877,
      "Trip": 2878,
      "##icrosoft": 2879,
      "ec1y": 2880,
      "framework": 2881,
      "13": 2882,
      "30": 2883,
      "Autom": 2884,
      "Be": 2885,
      "Citizen": 2886,
      "From": 2887,
      "Layer": 2888,
      "Oper": 2889,
      "Pre": 2890,
      "Pay": 2891,
      "don": 2892,
      "game": 2893,
      "house": 2894,
      "line": 2895,
      "treat": 2896,
      "ub": 2897,
      "year": 2898,
      "##ier": 2899,
      "##up": 2900,
      "##uch": 2901,
      "##less": 2902,
      "##oper": 2903,
      "##mg": 2904,
      "##pies": 2905,
      "##king": 2906,
      "##wit": 2907,
      "##01": 2908,
      "##DK": 2909,
      "##eristics": 2910,
      "##ines": 2911,
      "##inci": 2912,
      "##icating": 2913,
      "copies": 2914,
      "forward": 2915,
      "advis": 2916,
      "adopt": 2917,
      "##ime": 2918,
      "abuse": 2919,
      "stated": 2920,
      "states": 2921,
      "objection": 2922,
      "look": 2923,
      "##ulent": 2924,
      "complet": 2925,
      "##agraph": 2926,
      "precise": 2927,
      "browse": 2928,
      "setting": 2929,
      "##ionally": 2930,
      "What": 2931,
      "registering": 2932,
      "operation": 2933,
      "poss": 2934,
      "remain": 2935,
      "safe": 2936,
      "ensuring": 2937,
      "linked": 2938,
      "belief": 2939,
      "Addit": 2940,
      "Adobe": 2941,
      "Customerâs": 2942,
      "fraudulent": 2943,
      "analyzing": 2944,
      "served": 2945,
      "fulfillment": 2946,
      "Providing": 2947,
      "additionally": 2948,
      "involve": 2949,
      "amount": 2950,
      "##ultants": 2951,
      "conducting": 2952,
      "gathered": 2953,
      "audience": 2954,
      "selected": 2955,
      "defined": 2956,
      "acquir": 2957,
      "permission": 2958,
      "paragraph": 2959,
      "displayed": 2960,
      "vii": 2961,
      "geolocation": 2962,
      "jurisdictions": 2963,
      "encryption": 2964,
      "encrypted": 2965,
      "201": 2966,
      "contained": 2967,
      "potentially": 2968,
      "enabling": 2969,
      "unlawful": 2970,
      "##cause": 2971,
      "Applications": 2972,
      "##ready": 2973,
      "frequency": 2974,
      "covered": 2975,
      "recommendations": 2976,
      "characteristics": 2977,
      "Technologies": 2978,
      "trusted": 2979,
      "adversely": 2980,
      "Impro": 2981,
      "pertaining": 2982,
      "several": 2983,
      "21": 2984,
      "Certain": 2985,
      "Geo": 2986,
      "Officer": 2987,
      "Pin": 2988,
      "Res": 2989,
      "SM": 2990,
      "Set": 2991,
      "Sock": 2992,
      "Twit": 2993,
      "city": 2994,
      "es": 2995,
      "fed": 2996,
      "fill": 2997,
      "med": 2998,
      "nature": 2999,
      "red": 3000,
      "ur": 3001,
      "uplo": 3002,
      "##ufact": 3003,
      "##ning": 3004,
      "##ti": 3005,
      "##time": 3006,
      "##pact": 3007,
      "##IP": 3008,
      "##KE": 3009,
      "##35": 3010,
      "##eral": 3011,
      "##urance": 3012,
      "##thing": 3013,
      "because": 3014,
      "comment": 3015,
      "##iry": 3016,
      "##osing": 3017,
      "##artment": 3018,
      "notification": 3019,
      "along": 3020,
      "##ntil": 3021,
      "##amples": 3022,
      "requesting": 3023,
      "##isition": 3024,
      "##ivers": 3025,
      "advertisement": 3026,
      "held": 3027,
      "##bscribing": 3028,
      "Protection": 3029,
      "operators": 3030,
      "understanding": 3031,
      "offering": 3032,
      "storing": 3033,
      "google": 3034,
      "generated": 3035,
      "furthermore": 3036,
      "##inding": 3037,
      "owned": 3038,
      "thereafter": 3039,
      "organization": 3040,
      "States": 3041,
      "pursued": 3042,
      "searches": 3043,
      "known": 3044,
      "acquisition": 3045,
      "detection": 3046,
      "membership": 3047,
      "http": 3048,
      "commercially": 3049,
      "charge": 3050,
      "removal": 3051,
      "subscriptions": 3052,
      "Also": 3053,
      "##wards": 3054,
      "mechanism": 3055,
      "downloaded": 3056,
      "URLs": 3057,
      "NIKE": 3058,
      "territ": 3059,
      "Americ": 3060,
      "explain": 3061,
      "Statement": 3062,
      "title": 3063,
      "representative": 3064,
      "Spot": 3065,
      "SMS": 3066,
      "Twitter": 3067,
      "##ufactur": 3068,
      "Are": 3069,
      "Bro": 3070,
      "Do": 3071,
      "IS": 3072,
      "cri": 3073,
      "ess": 3074,
      "harm": 3075,
      "lit": 3076,
      "mention": 3077,
      "much": 3078,
      "rent": 3079,
      "rul": 3080,
      "sight": 3081,
      "until": 3082,
      "vest": 3083,
      "##ium": 3084,
      "##ibility": 3085,
      "##ties": 3086,
      "##oft": 3087,
      "##ral": 3088,
      "##vers": 3089,
      "##DDK": 3090,
      "##itud": 3091,
      "##icles": 3092,
      "##isoft": 3093,
      "anytime": 3094,
      "collecting": 3095,
      "##rael": 3096,
      "exit": 3097,
      "##unction": 3098,
      "accessible": 3099,
      "wherever": 3100,
      "makes": 3101,
      "bases": 3102,
      "withdrawing": 3103,
      "opting": 3104,
      "##epend": 3105,
      "locations": 3106,
      "impact": 3107,
      "##ipment": 3108,
      "analyt": 3109,
      "analyse": 3110,
      "##linemg": 3111,
      "err": 3112,
      "webm": 3113,
      "webpages": 3114,
      "While": 3115,
      "Protect": 3116,
      "userâs": 3117,
      "manually": 3118,
      "manufactur": 3119,
      "allowed": 3120,
      "availability": 3121,
      "experiences": 3122,
      "Admin": 3123,
      "swiss": 3124,
      "therefore": 3125,
      "Access": 3126,
      "associate": 3127,
      "calling": 3128,
      "learning": 3129,
      "informed": 3130,
      "administering": 3131,
      "persons": 3132,
      "merch": 3133,
      "vendor": 3134,
      "screen": 3135,
      "handle": 3136,
      "overr": 3137,
      "##lcome": 3138,
      "##anker": 3139,
      "legislation": 3140,
      "Such": 3141,
      "buy": 3142,
      "determining": 3143,
      "connected": 3144,
      "Examples": 3145,
      "evaluate": 3146,
      "evaluating": 3147,
      "NIDDK": 3148,
      "depending": 3149,
      "Communicate": 3150,
      "Trans": 3151,
      "Track": 3152,
      "produce": 3153,
      "Group": 3154,
      "important": 3155,
      "diagnose": 3156,
      "warrant": 3157,
      "answer": 3158,
      "suggestions": 3159,
      "alerts": 3160,
      "vehicle": 3161,
      "equipment": 3162,
      "Marketing": 3163,
      "Automat": 3164,
      "ubisoft": 3165,
      "##inciples": 3166,
      "Settings": 3167,
      "upload": 3168,
      "Spotify": 3169,
      "essential": 3170,
      "mentioned": 3171,
      "sightlinemg": 3172,
      "vested": 3173,
      "##itude": 3174,
      "53": 3175,
      "Dep": 3176,
      "Ear": 3177,
      "Mult": 3178,
      "Ro": 3179,
      "Sim": 3180,
      "TEN": 3181,
      "Val": 3182,
      "York": 3183,
      "avid": 3184,
      "bre": 3185,
      "days": 3186,
      "mind": 3187,
      "nb": 3188,
      "ra": 3189,
      "ro": 3190,
      "sure": 3191,
      "vent": 3192,
      "won": 3193,
      "##ealth": 3194,
      "##io": 3195,
      "##iative": 3196,
      "##ling": 3197,
      "##hn": 3198,
      "##of": 3199,
      "##cu": 3200,
      "##cun": 3201,
      "##911": 3202,
      "##TI": 3203,
      "##ON": 3204,
      "though": 3205,
      "##cture": 3206,
      "##ising": 3207,
      "mass": 3208,
      "##ilities": 3209,
      "welcome": 3210,
      "##asing": 3211,
      "##th911": 3212,
      "adroll": 3213,
      "##olution": 3214,
      "already": 3215,
      "lead": 3216,
      "canad": 3217,
      "compile": 3218,
      "computers": 3219,
      "docu": 3220,
      "offline": 3221,
      "seen": 3222,
      "##round": 3223,
      "diss": 3224,
      "That": 3225,
      "basic": 3226,
      "##anding": 3227,
      "team": 3228,
      "preca": 3229,
      "##key": 3230,
      "sends": 3231,
      "client": 3232,
      "##iply": 3233,
      "indicated": 3234,
      "controlled": 3235,
      "reviews": 3236,
      "posted": 3237,
      "##egg": 3238,
      "likely": 3239,
      "updating": 3240,
      "signed": 3241,
      "corrections": 3242,
      "credential": 3243,
      "inquiry": 3244,
      "##tenance": 3245,
      "residents": 3246,
      "instit": 3247,
      "portion": 3248,
      "Any": 3249,
      "securely": 3250,
      "anonymized": 3251,
      "recognized": 3252,
      "picture": 3253,
      "Union": 3254,
      "considered": 3255,
      "perman": 3256,
      "designated": 3257,
      "initially": 3258,
      "results": 3259,
      "videos": 3260,
      "Companies": 3261,
      "USA": 3262,
      "troubleshooting": 3263,
      "Processing": 3264,
      "##ffiliated": 3265,
      "##ffiliates": 3266,
      "friend": 3267,
      "friends": 3268,
      "topic": 3269,
      "subpoenas": 3270,
      "kinds": 3271,
      "Individual": 3272,
      "certification": 3273,
      "Beacons": 3274,
      "federal": 3275,
      "explained": 3276,
      "ISP": 3277,
      "rules": 3278,
      "Earth911": 3279,
      "Multiply": 3280,
      "nbcun": 3281,
      "precautions": 3282,
      "14": 3283,
      "15": 3284,
      "Dem": 3285,
      "Ec": 3286,
      "Fin": 3287,
      "HT": 3288,
      "LL": 3289,
      "Zill": 3290,
      "bure": 3291,
      "cent": 3292,
      "driv": 3293,
      "gl": 3294,
      "gif": 3295,
      "gbr": 3296,
      "home": 3297,
      "host": 3298,
      "jud": 3299,
      "lic": 3300,
      "light": 3301,
      "min": 3302,
      "run": 3303,
      "sch": 3304,
      "sold": 3305,
      "âc": 3306,
      "âopt": 3307,
      "##eer": 3308,
      "##ded": 3309,
      "##date": 3310,
      "##uet": 3311,
      "##nitz": 3312,
      "##oo": 3313,
      "##over": 3314,
      "##privacy": 3315,
      "##kt": 3316,
      "##wh": 3317,
      "##AM": 3318,
      "##OS": 3319,
      "##10": 3320,
      "##EC": 3321,
      "##RM": 3322,
      "##Ranker": 3323,
      "##orpor": 3324,
      "theft": 3325,
      "##icial": 3326,
      "prospect": 3327,
      "##ision": 3328,
      "usa": 3329,
      "##ident": 3330,
      "advert": 3331,
      "export": 3332,
      "exhibit": 3333,
      "Informationâ": 3334,
      "next": 3335,
      "leave": 3336,
      "reservation": 3337,
      "##ume": 3338,
      "addressed": 3339,
      "withdrawn": 3340,
      "sohn": 3341,
      "broad": 3342,
      "imm": 3343,
      "images": 3344,
      "retains": 3345,
      "##iability": 3346,
      "erased": 3347,
      "controllers": 3348,
      "plug": 3349,
      "saving": 3350,
      "Proper": 3351,
      "operator": 3352,
      "channels": 3353,
      "##ookies": 3354,
      "allowing": 3355,
      "intra": 3356,
      "volunteer": 3357,
      "maintenance": 3358,
      "completely": 3359,
      "Conduct": 3360,
      "obliges": 3361,
      "recipient": 3362,
      "carrier": 3363,
      "swift": 3364,
      "herein": 3365,
      "groups": 3366,
      "blocking": 3367,
      "development": 3368,
      "issue": 3369,
      "Platforms": 3370,
      "detecting": 3371,
      "handling": 3372,
      "combined": 3373,
      "destin": 3374,
      "##roller": 3375,
      "posts": 3376,
      "insights": 3377,
      "integrate": 3378,
      "pixels": 3379,
      "adjusting": 3380,
      "small": 3381,
      "provisions": 3382,
      "permissible": 3383,
      "suitable": 3384,
      "photos": 3385,
      "stamp": 3386,
      "stamnitz": 3387,
      "elig": 3388,
      "else": 3389,
      "dataprotectiono": 3390,
      "authentication": 3391,
      "Controller": 3392,
      "committed": 3393,
      "efficiently": 3394,
      "placed": 3395,
      "distribution": 3396,
      "testing": 3397,
      "envy": 3398,
      "assigned": 3399,
      "logged": 3400,
      "treatment": 3401,
      "adopted": 3402,
      "Additionally": 3403,
      "GeoRanker": 3404,
      "Pinterest": 3405,
      "Area": 3406,
      "Similar": 3407,
      "Valve": 3408,
      "breach": 3409,
      "raise": 3410,
      "massage": 3411,
      "dissolution": 3412,
      "credentials": 3413,
      "Demographic": 3414,
      "Economic": 3415,
      "LLC": 3416,
      "Zillow": 3417,
      "burea": 3418,
      "gifs": 3419,
      "exhibitions": 3420,
      "And": 3421,
      "Fire": 3422,
      "Flash": 3423,
      "Gener": 3424,
      "Guardian": 3425,
      "Hill": 3426,
      "Health": 3427,
      "Ltd": 3428,
      "ML": 3429,
      "Or": 3430,
      "Object": 3431,
      "ce": 3432,
      "cat": 3433,
      "div": 3434,
      "flash": 3435,
      "ip": 3436,
      "ke": 3437,
      "met": 3438,
      "microsoft": 3439,
      "net": 3440,
      "pol": 3441,
      "range": 3442,
      "size": 3443,
      "ul": 3444,
      "wor": 3445,
      "##ext": 3446,
      "##sel": 3447,
      "##tended": 3448,
      "##file": 3449,
      "##mpor": 3450,
      "##com": 3451,
      "##pic": 3452,
      "##bed": 3453,
      "##ID": 3454,
      "##zes": 3455,
      "##Ad": 3456,
      "##AC": 3457,
      "##PI": 3458,
      "##ingly": 3459,
      "##alog": 3460,
      "##ediate": 3461,
      "cost": 3462,
      "##ilton": 3463,
      "##table": 3464,
      "suspect": 3465,
      "##chang": 3466,
      "##rict": 3467,
      "hap": 3468,
      "##tery": 3469,
      "##utory": 3470,
      "noted": 3471,
      "Interest": 3472,
      "##place": 3473,
      "contacted": 3474,
      "exchang": 3475,
      "str": 3476,
      "stud": 3477,
      "context": 3478,
      "enqu": 3479,
      "reset": 3480,
      "resources": 3481,
      "outâ": 3482,
      "##und": 3483,
      "embed": 3484,
      "seg": 3485,
      "dispos": 3486,
      "advertiser": 3487,
      "tempor": 3488,
      "something": 3489,
      "impa": 3490,
      "directed": 3491,
      "acting": 3492,
      "##ternative": 3493,
      "save": 3494,
      "Profile": 3495,
      "promote": 3496,
      "recru": 3497,
      "arr": 3498,
      "##eav": 3499,
      "affiliate": 3500,
      "describe": 3501,
      "simply": 3502,
      "statutory": 3503,
      "periods": 3504,
      "purchasing": 3505,
      "resolution": 3506,
      "owner": 3507,
      "targeting": 3508,
      "created": 3509,
      "endeav": 3510,
      "unaffiliated": 3511,
      "Apps": 3512,
      "incom": 3513,
      "points": 3514,
      "problem": 3515,
      "Rec": 3516,
      "merged": 3517,
      "showing": 3518,
      "audits": 3519,
      "easier": 3520,
      "insurance": 3521,
      "agency": 3522,
      "build": 3523,
      "establishment": 3524,
      "method": 3525,
      "engagement": 3526,
      "programm": 3527,
      "navigation": 3528,
      "termin": 3529,
      "checks": 3530,
      "photo": 3531,
      "violations": 3532,
      "proceedings": 3533,
      "Swiss": 3534,
      "##ength": 3535,
      "deactivate": 3536,
      "mov": 3537,
      "sponsored": 3538,
      "possession": 3539,
      "2018": 3540,
      "Improve": 3541,
      "American": 3542,
      "##ependent": 3543,
      "Automatically": 3544,
      "533": 3545,
      "ventures": 3546,
      "canada": 3547,
      "document": 3548,
      "judicial": 3549,
      "âcookies": 3550,
      "prospective": 3551,
      "swiftkey": 3552,
      "dataprotectionoffice": 3553,
      "bureaus": 3554,
      "MLB": 3555,
      "catalog": 3556,
      "impaired": 3557,
      "recruit": 3558,
      "25": 3559,
      "64": 3560,
      "87": 3561,
      "Affiliates": 3562,
      "Cred": 3563,
      "Fe": 3564,
      "Is": 3565,
      "Kay": 3566,
      "Li": 3567,
      "Limit": 3568,
      "Mary": 3569,
      "Name": 3570,
      "Pr": 3571,
      "Per": 3572,
      "Publ": 3573,
      "Rep": 3574,
      "Search": 3575,
      "Sending": 3576,
      "Sources": 3577,
      "Up": 3578,
      "air": 3579,
      "box": 3580,
      "binding": 3581,
      "cr": 3582,
      "cou": 3583,
      "came": 3584,
      "due": 3585,
      "fl": 3586,
      "hol": 3587,
      "hilton": 3588,
      "pus": 3589,
      "pti": 3590,
      "zone": 3591,
      "##sh": 3592,
      "##sp": 3593,
      "##sy": 3594,
      "##data": 3595,
      "##air": 3596,
      "##aps": 3597,
      "##lty": 3598,
      "##ne": 3599,
      "##noun": 3600,
      "##tion": 3601,
      "##hed": 3602,
      "##hold": 3603,
      "##hap": 3604,
      "##ope": 3605,
      "##ren": 3606,
      "##fin": 3607,
      "##fox": 3608,
      "##gc": 3609,
      "##pace": 3610,
      "##bilities": 3611,
      "##yond": 3612,
      "##know": 3613,
      "##In": 3614,
      "##onor": 3615,
      "##outh": 3616,
      "##oura": 3617,
      "##ores": 3618,
      "##ining": 3619,
      "intention": 3620,
      "##itiative": 3621,
      "announ": 3622,
      "##ingle": 3623,
      "##alent": 3624,
      "##urion": 3625,
      "##ural": 3626,
      "real": 3627,
      "reuse": 3628,
      "##annels": 3629,
      "asurion": 3630,
      "beyond": 3631,
      "##ests": 3632,
      "why": 3633,
      "##retion": 3634,
      "##cements": 3635,
      "##uty": 3636,
      "##olink": 3637,
      "acknow": 3638,
      "##imum": 3639,
      "Inter": 3640,
      "Inde": 3641,
      "Initiative": 3642,
      "##stant": 3643,
      "extern": 3644,
      "stating": 3645,
      "strict": 3646,
      "##aming": 3647,
      "unhap": 3648,
      "##ulation": 3649,
      "enroll": 3650,
      "resume": 3651,
      "comprom": 3652,
      "compiling": 3653,
      "accident": 3654,
      "##elp": 3655,
      "Through": 3656,
      "regular": 3657,
      "##blox": 3658,
      "##ords": 3659,
      "agent": 3660,
      "quick": 3661,
      "supervision": 3662,
      "itself": 3663,
      "keeping": 3664,
      "indicate": 3665,
      "##ovelty": 3666,
      "improvement": 3667,
      "restricted": 3668,
      "player": 3669,
      "underta": 3670,
      "##minal": 3671,
      "preference": 3672,
      "substant": 3673,
      "transmitting": 3674,
      "##like": 3675,
      "ensures": 3676,
      "commissioner": 3677,
      "Compl": 3678,
      "##gets": 3679,
      "serving": 3680,
      "accurately": 3681,
      "permits": 3682,
      "permitting": 3683,
      "accepted": 3684,
      "install": 3685,
      "creating": 3686,
      "hear": 3687,
      "calls": 3688,
      "matters": 3689,
      "carrying": 3690,
      "cap": 3691,
      "spam": 3692,
      "scroll": 3693,
      "encoura": 3694,
      "Rece": 3695,
      "Reolink": 3696,
      "discretion": 3697,
      "procedure": 3698,
      "habits": 3699,
      "Commission": 3700,
      "remembering": 3701,
      "Online": 3702,
      "fax": 3703,
      "assessments": 3704,
      "##aze": 3705,
      "department": 3706,
      "Application": 3707,
      "children": 3708,
      "idgc": 3709,
      "carefully": 3710,
      "subpoena": 3711,
      "youâre": 3712,
      "forums": 3713,
      "Manage": 3714,
      "Registration": 3715,
      "later": 3716,
      "preserve": 3717,
      "primary": 3718,
      "Prefer": 3719,
      "Payment": 3720,
      "household": 3721,
      "looking": 3722,
      "Sockets": 3723,
      "##iversal": 3724,
      "Brows": 3725,
      "criminal": 3726,
      "analytical": 3727,
      "override": 3728,
      "Roblox": 3729,
      "permanently": 3730,
      "Individuals": 3731,
      "license": 3732,
      "##ktop": 3733,
      "adverts": 3734,
      "immediate": 3735,
      "Properties": 3736,
      "Firefox": 3737,
      "cease": 3738,
      "suspected": 3739,
      "happy": 3740,
      "embedded": 3741,
      "temporarily": 3742,
      "arrange": 3743,
      "incomp": 3744,
      "6435": 3745,
      "877": 3746,
      "Credit": 3747,
      "Like": 3748,
      "Limited": 3749,
      "Perform": 3750,
      "push": 3751,
      "announcements": 3752,
      "acknowled": 3753,
      "Indeed": 3754,
      "external": 3755,
      "unhappy": 3756,
      "substantially": 3757,
      "16": 3758,
      "800": 3759,
      "Att": 3760,
      "Book": 3761,
      "Dis": 3762,
      "Gu": 3763,
      "IN": 3764,
      "Le": 3765,
      "Low": 3766,
      "Loc": 3767,
      "Me": 3768,
      "Member": 3769,
      "Overs": 3770,
      "Pur": 3771,
      "Par": 3772,
      "Right": 3773,
      "Section": 3774,
      "System": 3775,
      "South": 3776,
      "UPS": 3777,
      "aon": 3778,
      "afore": 3779,
      "ban": 3780,
      "bod": 3781,
      "cross": 3782,
      "der": 3783,
      "drive": 3784,
      "est": 3785,
      "fish": 3786,
      "foc": 3787,
      "fav": 3788,
      "guardian": 3789,
      "ht": 3790,
      "high": 3791,
      "iOS": 3792,
      "length": 3793,
      "mar": 3794,
      "ov": 3795,
      "pa": 3796,
      "rout": 3797,
      "rich": 3798,
      "side": 3799,
      "script": 3800,
      "single": 3801,
      "win": 3802,
      "wid": 3803,
      "york": 3804,
      "âP": 3805,
      "##da": 3806,
      "##dom": 3807,
      "##ule": 3808,
      "##au": 3809,
      "##nel": 3810,
      "##took": 3811,
      "##tock": 3812,
      "##mb": 3813,
      "##cont": 3814,
      "##pers": 3815,
      "##par": 3816,
      "##page": 3817,
      "##FO": 3818,
      "##40": 3819,
      "##80": 3820,
      "##Tra": 3821,
      "##ATI": 3822,
      "##atch": 3823,
      "##inion": 3824,
      "##ioned": 3825,
      "##ingdom": 3826,
      "##uration": 3827,
      "##enu": 3828,
      "orient": 3829,
      "usable": 3830,
      "remin": 3831,
      "informational": 3832,
      "oursel": 3833,
      "##iding": 3834,
      "##aster": 3835,
      "bec": 3836,
      "beac": 3837,
      "##ottery": 3838,
      "##uto": 3839,
      "##olute": 3840,
      "Ins": 3841,
      "Intended": 3842,
      "ext": 3843,
      "protecting": 3844,
      "consultants": 3845,
      "##mentioned": 3846,
      "stream": 3847,
      "neg": 3848,
      "cance": 3849,
      "privacyp": 3850,
      "appe": 3851,
      "##eli": 3852,
      "sex": 3853,
      "secur": 3854,
      "emailÂ": 3855,
      "##ards": 3856,
      "##iving": 3857,
      "registr": 3858,
      "portal": 3859,
      "offices": 3860,
      "prem": 3861,
      "Tools": 3862,
      "acted": 3863,
      "actual": 3864,
      "##active": 3865,
      "##empt": 3866,
      "clients": 3867,
      "closing": 3868,
      "improvements": 3869,
      "##subscribe": 3870,
      "undertook": 3871,
      "said": 3872,
      "particularly": 3873,
      "hashed": 3874,
      "operational": 3875,
      "##ource": 3876,
      "posting": 3877,
      "arising": 3878,
      "contracts": 3879,
      "signing": 3880,
      "behaviour": 3881,
      "articles": 3882,
      "correctly": 3883,
      "whole": 3884,
      "enforced": 3885,
      "voluntary": 3886,
      "generate": 3887,
      "listings": 3888,
      "employer": 3889,
      "maintained": 3890,
      "serves": 3891,
      "Agents": 3892,
      "Aggregate": 3893,
      "owners": 3894,
      "trade": 3895,
      "unsubscribing": 3896,
      "measuring": 3897,
      "Googleâs": 3898,
      "subsequ": 3899,
      "pursue": 3900,
      "reflect": 3901,
      "transactional": 3902,
      "analyses": 3903,
      "capa": 3904,
      "Develop": 3905,
      "scope": 3906,
      "handles": 3907,
      "Contacting": 3908,
      "procedural": 3909,
      "Share": 3910,
      "habitually": 3911,
      "organizational": 3912,
      "value": 3913,
      "modifying": 3914,
      "tells": 3915,
      "clearing": 3916,
      "initi": 3917,
      "initiate": 3918,
      "##appro": 3919,
      "everyday": 3920,
      "absolute": 3921,
      "##readless": 3922,
      "Therefore": 3923,
      "frequently": 3924,
      "Channels": 3925,
      "Club": 3926,
      "Groupon": 3927,
      "branded": 3928,
      "youâve": 3929,
      "original": 3930,
      "proceeding": 3931,
      "Notice": 3932,
      "Consultants": 3933,
      "configure": 3934,
      "configuration": 3935,
      "utilize": 3936,
      "benefits": 3937,
      "denied": 3938,
      "primarily": 3939,
      "dealership": 3940,
      "frameworks": 3941,
      "years": 3942,
      "remains": 3943,
      "medpace": 3944,
      "google®": 3945,
      "territory": 3946,
      "##unctional": 3947,
      "webmd": 3948,
      "manufacturers": 3949,
      "Tracking": 3950,
      "glob": 3951,
      "##ooth": 3952,
      "##where": 3953,
      "##ECT": 3954,
      "##RMATI": 3955,
      "destination": 3956,
      "eligibility": 3957,
      "elsewhere": 3958,
      "world": 3959,
      "enquiries": 3960,
      "Israel": 3961,
      "Principles": 3962,
      "compromised": 3963,
      "quickly": 3964,
      "Compliance": 3965,
      "encourage": 3966,
      "immediately": 3967,
      "Attn": 3968,
      "Booking": 3969,
      "INFO": 3970,
      "Overstock": 3971,
      "aforementioned": 3972,
      "fisher": 3973,
      "favor": 3974,
      "htm": 3975,
      "scripts": 3976,
      "widgets": 3977,
      "ourselves": 3978,
      "beacon": 3979,
      "##RMATION": 3980,
      "INFORMATION": 3981,
      "06": 3982,
      "18": 3983,
      "23": 3984,
      "45": 3985,
      "Ass": 3986,
      "After": 3987,
      "Ble": 3988,
      "Bill": 3989,
      "CO": 3990,
      "Cho": 3991,
      "Corpor": 3992,
      "Et": 3993,
      "Fi": 3994,
      "Fed": 3995,
      "Fir": 3996,
      "Further": 3997,
      "Jav": 3998,
      "KB": 3999,
      "Karm": 4000,
      "My": 4001,
      "Microsoft": 4002,
      "MAC": 4003,
      "NY": 4004,
      "Nor": 4005,
      "Of": 4006,
      "Office": 4007,
      "Rights": 4008,
      "Sam": 4009,
      "Spons": 4010,
      "Ty": 4011,
      "UK": 4012,
      "Visit": 4013,
      "ach": 4014,
      "dot": 4015,
      "dropbox": 4016,
      "ever": 4017,
      "far": 4018,
      "fast": 4019,
      "field": 4020,
      "fix": 4021,
      "gr": 4022,
      "geo": 4023,
      "gmb": 4024,
      "giving": 4025,
      "lif": 4026,
      "ltd": 4027,
      "mans": 4028,
      "mone": 4029,
      "ny": 4030,
      "pok": 4031,
      "ser": 4032,
      "sam": 4033,
      "tre": 4034,
      "tied": 4035,
      "titled": 4036,
      "views": 4037,
      "wide": 4038,
      "waz": 4039,
      "yo": 4040,
      "##ec": 4041,
      "##eve": 4042,
      "##ipt": 4043,
      "##ls": 4044,
      "##late": 4045,
      "##to": 4046,
      "##officer": 4047,
      "##rast": 4048,
      "##gent": 4049,
      "##gage": 4050,
      "##ground": 4051,
      "##mon": 4052,
      "##miss": 4053,
      "##cas": 4054,
      "##cond": 4055,
      "##bur": 4056,
      "##Fi": 4057,
      "##ML": 4058,
      "##âve": 4059,
      "##way": 4060,
      "##AI": 4061,
      "##UR": 4062,
      "##RS": 4063,
      "##émon": 4064,
      "##erally": 4065,
      "##ones": 4066,
      "threat": 4067,
      "token": 4068,
      "inappro": 4069,
      "##rol": 4070,
      "##ingu": 4071,
      "##ared": 4072,
      "repe": 4073,
      "##tadata": 4074,
      "personalization": 4075,
      "personalizing": 4076,
      "##igation": 4077,
      "subscrib": 4078,
      "susp": 4079,
      "##rieve": 4080,
      "##iron": 4081,
      "##ires": 4082,
      "processor": 4083,
      "##imo": 4084,
      "color": 4085,
      "##plitude": 4086,
      "attention": 4087,
      "exec": 4088,
      "##romot": 4089,
      "##mental": 4090,
      "shown": 4091,
      "unlike": 4092,
      "##ailing": 4093,
      "##ulate": 4094,
      "privacyofficer": 4095,
      "##eless": 4096,
      "interesting": 4097,
      "##ived": 4098,
      "Threadless": 4099,
      "##izzes": 4100,
      "##ieve": 4101,
      "funda": 4102,
      "##adem": 4103,
      "customizing": 4104,
      "actually": 4105,
      "##ode": 4106,
      "contents": 4107,
      "##ructure": 4108,
      "play": 4109,
      "Product": 4110,
      "Progra": 4111,
      "desktop": 4112,
      "fully": 4113,
      "##acher": 4114,
      "##ublic": 4115,
      "##alls": 4116,
      "postings": 4117,
      "exists": 4118,
      "limiting": 4119,
      "limitations": 4120,
      "taking": 4121,
      "signals": 4122,
      "gov": 4123,
      "disclosures": 4124,
      "supported": 4125,
      "submitting": 4126,
      "infrast": 4127,
      "##ifying": 4128,
      "referr": 4129,
      "referral": 4130,
      "regulator": 4131,
      "currently": 4132,
      "##visor": 4133,
      "entry": 4134,
      "entire": 4135,
      "fulfilling": 4136,
      "thereof": 4137,
      "Provider": 4138,
      "involving": 4139,
      "involves": 4140,
      "modification": 4141,
      "modified": 4142,
      "amplitude": 4143,
      "unauthorised": 4144,
      "knowingly": 4145,
      "successor": 4146,
      "Uni": 4147,
      "defense": 4148,
      "issued": 4149,
      "exceptions": 4150,
      "capt": 4151,
      "spent": 4152,
      "space": 4153,
      "birthdate": 4154,
      "scan": 4155,
      "scores": 4156,
      "Networking": 4157,
      "sales": 4158,
      "Collection": 4159,
      "##loor": 4160,
      "##change": 4161,
      "retrieve": 4162,
      "containing": 4163,
      "Allow": 4164,
      "Team": 4165,
      "booker": 4166,
      "Once": 4167,
      "officials": 4168,
      "returns": 4169,
      "Communications": 4170,
      "movement": 4171,
      "authenticate": 4172,
      "produces": 4173,
      "Contract": 4174,
      "Newegg": 4175,
      "attempt": 4176,
      "importance": 4177,
      "diagnos": 4178,
      "supplementary": 4179,
      "popularity": 4180,
      "calc": 4181,
      "environ": 4182,
      "utilized": 4183,
      "TripAd": 4184,
      "Operate": 4185,
      "acquiring": 4186,
      "redu": 4187,
      "territories": 4188,
      "literally": 4189,
      "error": 4190,
      "errors": 4191,
      "Administer": 4192,
      "Depending": 4193,
      "institutions": 4194,
      "nbcuniversal": 4195,
      "HTML": 4196,
      "running": 4197,
      "##ueto": 4198,
      "exchanges": 4199,
      "study": 4200,
      "segments": 4201,
      "##ternatively": 4202,
      "programming": 4203,
      "termination": 4204,
      "MLBAM": 4205,
      "Publish": 4206,
      "Report": 4207,
      "##shield": 4208,
      "##news": 4209,
      "accidental": 4210,
      "Receive": 4211,
      "Browser": 4212,
      "incomplete": 4213,
      "acknowledge": 4214,
      "focus": 4215,
      "appear": 4216,
      "secured": 4217,
      "registrations": 4218,
      "global": 4219,
      "favorite": 4220,
      "Bleacher": 4221,
      "Etsy": 4222,
      "First": 4223,
      "KBB": 4224,
      "Karma": 4225,
      "Sponsor": 4226,
      "Typ": 4227,
      "achieve": 4228,
      "gmbh": 4229,
      "mansueto": 4230,
      "money": 4231,
      "pokémon": 4232,
      "treated": 4233,
      "wazimo": 4234,
      "yoox": 4235,
      "##missions": 4236,
      "inappropriate": 4237,
      "fundamental": 4238,
      "infrastructure": 4239,
      "TripAdvisor": 4240,
      "1d": 4241,
      "28": 4242,
      "3m": 4243,
      "36": 4244,
      "300": 4245,
      "88": 4246,
      "94": 4247,
      "Auto": 4248,
      "Briv": 4249,
      "Barn": 4250,
      "Based": 4251,
      "Cre": 4252,
      "DA": 4253,
      "Deli": 4254,
      "EC": 4255,
      "Fan": 4256,
      "Floor": 4257,
      "Gl": 4258,
      "GI": 4259,
      "GD": 4260,
      "Ire": 4261,
      "Link": 4262,
      "London": 4263,
      "Med": 4264,
      "No": 4265,
      "Num": 4266,
      "Rese": 4267,
      "Respond": 4268,
      "Sn": 4269,
      "Sur": 4270,
      "Stand": 4271,
      "Upon": 4272,
      "Und": 4273,
      "Ver": 4274,
      "WE": 4275,
      "Xfin": 4276,
      "YO": 4277,
      "base": 4278,
      "draw": 4279,
      "dates": 4280,
      "even": 4281,
      "epic": 4282,
      "fail": 4283,
      "food": 4284,
      "gate": 4285,
      "graph": 4286,
      "gath": 4287,
      "gift": 4288,
      "honor": 4289,
      "ir": 4290,
      "ico": 4291,
      "kingdom": 4292,
      "ls": 4293,
      "liability": 4294,
      "mal": 4295,
      "mom": 4296,
      "mark": 4297,
      "mand": 4298,
      "pie": 4299,
      "pack": 4300,
      "race": 4301,
      "sess": 4302,
      "self": 4303,
      "tri": 4304,
      "wir": 4305,
      "âIP": 4306,
      "##ew": 4307,
      "##solic": 4308,
      "##ii": 4309,
      "##des": 4310,
      "##uel": 4311,
      "##ak": 4312,
      "##aS": 4313,
      "##look": 4314,
      "##na": 4315,
      "##network": 4316,
      "##tv": 4317,
      "##tons": 4318,
      "##oint": 4319,
      "##overy": 4320,
      "##ran": 4321,
      "##rics": 4322,
      "##far": 4323,
      "##fell": 4324,
      "##man": 4325,
      "##mpt": 4326,
      "##mark": 4327,
      "##mond": 4328,
      "##certain": 4329,
      "##public": 4330,
      "##yle": 4331,
      "##Fs": 4332,
      "##ze": 4333,
      "##NG": 4334,
      "##20": 4335,
      "##PR": 4336,
      "##Ch": 4337,
      "##ES": 4338,
      "##Duel": 4339,
      "##erg": 4340,
      "##online": 4341,
      "##ater": 4342,
      "##ouch": 4343,
      "##inite": 4344,
      "##incip": 4345,
      "inso": 4346,
      "anti": 4347,
      "##roid": 4348,
      "##icit": 4349,
      "##icing": 4350,
      "##icip": 4351,
      "##edIn": 4352,
      "##force": 4353,
      "prove": 4354,
      "prompt": 4355,
      "##erstand": 4356,
      "usually": 4357,
      "usability": 4358,
      "reve": 4359,
      "release": 4360,
      "retail": 4361,
      "cooper": 4362,
      "##enter": 4363,
      "conven": 4364,
      "weather": 4365,
      "personalised": 4366,
      "##ervations": 4367,
      "##idation": 4368,
      "subscribing": 4369,
      "##chmark": 4370,
      "##ths": 4371,
      "come": 4372,
      "##irements": 4373,
      "##irates": 4374,
      "##rey": 4375,
      "del": 4376,
      "degre": 4377,
      "debt": 4378,
      "##utes": 4379,
      "##ately": 4380,
      "academ": 4381,
      "##raz": 4382,
      "israel": 4383,
      "atÂ": 4384,
      "try": 4385,
      "expect": 4386,
      "protects": 4387,
      "protections": 4388,
      "start": 4389,
      "##ferred": 4390,
      "objected": 4391,
      "near": 4392,
      "contrib": 4393,
      "short": 4394,
      "unsolic": 4395,
      "apa": 4396,
      "transport": 4397,
      "##peed": 4398,
      "outs": 4399,
      "emirates": 4400,
      "separ": 4401,
      "##usic": 4402,
      "##used": 4403,
      "##usive": 4404,
      "che": 4405,
      "##ivision": 4406,
      "marketplace": 4407,
      "receipt": 4408,
      "suppress": 4409,
      "metadata": 4410,
      "applied": 4411,
      "opted": 4412,
      "##andang": 4413,
      "relies": 4414,
      "relate": 4415,
      "relates": 4416,
      "reliability": 4417,
      "prev": 4418,
      "aggreg": 4419,
      "profiles": 4420,
      "##adrant": 4421,
      "mailings": 4422,
      "customization": 4423,
      "##curring": 4424,
      "quizzes": 4425,
      "quadrant": 4426,
      "formal": 4427,
      "##kefell": 4428,
      "ordering": 4429,
      "communicating": 4430,
      "indef": 4431,
      "index": 4432,
      "counts": 4433,
      "webpage": 4434,
      "##veloper": 4435,
      "restricting": 4436,
      "plan": 4437,
      "undergoing": 4438,
      "##opinion": 4439,
      "performed": 4440,
      "operated": 4441,
      "manual": 4442,
      "##ockefell": 4443,
      "approx": 4444,
      "remed": 4445,
      "Internal": 4446,
      "preferred": 4447,
      "adequately": 4448,
      "messaging": 4449,
      "invo": 4450,
      "levels": 4451,
      "delivered": 4452,
      "interacting": 4453,
      "placement": 4454,
      "disclosing": 4455,
      "oppos": 4456,
      "linking": 4457,
      "Ads": 4458,
      "maintains": 4459,
      "participation": 4460,
      "obliged": 4461,
      "surf": 4462,
      "surrey": 4463,
      "oneopinion": 4464,
      "purchased": 4465,
      "owed": 4466,
      "computerâs": 4467,
      "##ellers": 4468,
      "##point": 4469,
      "requirement": 4470,
      "Partner": 4471,
      "hereby": 4472,
      "satisfact": 4473,
      "satisfaction": 4474,
      "monet": 4475,
      "months": 4476,
      "Apple": 4477,
      "engaged": 4478,
      "engines": 4479,
      "matter": 4480,
      "tasks": 4481,
      "incre": 4482,
      "income": 4483,
      "IDs": 4484,
      "principles": 4485,
      "princip": 4486,
      "##psh": 4487,
      "turning": 4488,
      "Unsubscribe": 4489,
      "Univision": 4490,
      "spend": 4491,
      "relationships": 4492,
      "parents": 4493,
      "1011": 4494,
      "1001": 4495,
      "##hoo": 4496,
      "gear": 4497,
      "geograph": 4498,
      "misused": 4499,
      "boards": 4500,
      "verifying": 4501,
      "Advertisers": 4502,
      "healthline": 4503,
      "Shop": 4504,
      "Sub": 4505,
      "enabled": 4506,
      "charg": 4507,
      "removing": 4508,
      "Alternatively": 4509,
      "dealings": 4510,
      "One": 4511,
      "Only": 4512,
      "buying": 4513,
      "Requirements": 4514,
      "facilities": 4515,
      "join": 4516,
      "jobs": 4517,
      "assessment": 4518,
      "courts": 4519,
      "Express": 4520,
      "##aza": 4521,
      "presented": 4522,
      "returned": 4523,
      "smart": 4524,
      "putting": 4525,
      "distingu": 4526,
      "benchmark": 4527,
      "movements": 4528,
      "tw9": 4529,
      "topics": 4530,
      "expressly": 4531,
      "Technical": 4532,
      "Relations": 4533,
      "hosted": 4534,
      "reached": 4535,
      "Click": 4536,
      "explicit": 4537,
      "commitments": 4538,
      "violation": 4539,
      "brands": 4540,
      "kindly": 4541,
      "Independent": 4542,
      "attn": 4543,
      "Outlook": 4544,
      "WiFi": 4545,
      "certified": 4546,
      "##expo": 4547,
      "answers": 4548,
      "publishers": 4549,
      "blogs": 4550,
      "vehicles": 4551,
      "latest": 4552,
      "Addresses": 4553,
      "deactivating": 4554,
      "reedexpo": 4555,
      "demands": 4556,
      "logging": 4557,
      "Operating": 4558,
      "advisable": 4559,
      "completed": 4560,
      "acquires": 4561,
      "Improving": 4562,
      "Socket": 4563,
      "esa": 4564,
      "litigation": 4565,
      "webmaster": 4566,
      "manufacturer": 4567,
      "merchant": 4568,
      "Transactions": 4569,
      "nbcuni": 4570,
      "Financial": 4571,
      "center": 4572,
      "minimum": 4573,
      "Android": 4574,
      "General": 4575,
      "kept": 4576,
      "metrics": 4577,
      "disposition": 4578,
      "movies": 4579,
      "crash": 4580,
      "installed": 4581,
      "Management": 4582,
      "Preferences": 4583,
      "arrangements": 4584,
      "Learn": 4585,
      "System1": 4586,
      "banner": 4587,
      "estimate": 4588,
      "overse": 4589,
      "richmond": 4590,
      "âPersonal": 4591,
      "##Trader": 4592,
      "orientation": 4593,
      "reminders": 4594,
      "become": 4595,
      "privacypractices": 4596,
      "sexual": 4597,
      "subsequent": 4598,
      "##unctionality": 4599,
      "JavaS": 4600,
      "Samâs": 4601,
      "grinding": 4602,
      "suspend": 4603,
      "reduce": 4604,
      "Types": 4605,
      "1dn": 4606,
      "Brivo": 4607,
      "Barnes": 4608,
      "FanDuel": 4609,
      "Glass": 4610,
      "GIFs": 4611,
      "GDPR": 4612,
      "Ireland": 4613,
      "LinkedIn": 4614,
      "Medium": 4615,
      "Noble": 4616,
      "Number": 4617,
      "Research": 4618,
      "Snap": 4619,
      "Surve": 4620,
      "Understand": 4621,
      "Xfinity": 4622,
      "gateway": 4623,
      "gathers": 4624,
      "wireless": 4625,
      "âIPâ": 4626,
      "insofar": 4627,
      "reveal": 4628,
      "degree": 4629,
      "academia": 4630,
      "unsolicited": 4631,
      "##andango": 4632,
      "indefinite": 4633,
      "##ockefeller": 4634,
      "10112": 4635,
      "distinguish": 4636,
      "JavaScript": 4637,
      "24": 4638,
      "27": 4639,
      "31": 4640,
      "49": 4641,
      "440": 4642,
      "75": 4643,
      "77": 4644,
      "8f": 4645,
      "84": 4646,
      "90": 4647,
      "97": 4648,
      "Ab": 4649,
      "Aud": 4650,
      "API": 4651,
      "Bl": 4652,
      "Bea": 4653,
      "CI": 4654,
      "CT": 4655,
      "City": 4656,
      "Cost": 4657,
      "Det": 4658,
      "Ful": 4659,
      "Help": 4660,
      "IT": 4661,
      "La": 4662,
      "Live": 4663,
      "Law": 4664,
      "Main": 4665,
      "More": 4666,
      "Mem": 4667,
      "Mobile": 4668,
      "Most": 4669,
      "NAM": 4670,
      "Novelty": 4671,
      "NAI": 4672,
      "Pass": 4673,
      "Persistent": 4674,
      "Sc": 4675,
      "Sal": 4676,
      "San": 4677,
      "Sign": 4678,
      "Slate": 4679,
      "Vend": 4680,
      "Waze": 4681,
      "ZIP": 4682,
      "affor": 4683,
      "award": 4684,
      "bal": 4685,
      "bab": 4686,
      "bough": 4687,
      "citiz": 4688,
      "craz": 4689,
      "dm": 4690,
      "dat": 4691,
      "dam": 4692,
      "day": 4693,
      "drop": 4694,
      "duty": 4695,
      "ed": 4696,
      "eood": 4697,
      "fig": 4698,
      "fandango": 4699,
      "ger": 4700,
      "gro": 4701,
      "gen": 4702,
      "gain": 4703,
      "guard": 4704,
      "giles": 4705,
      "hb": 4706,
      "hot": 4707,
      "hob": 4708,
      "hires": 4709,
      "jum": 4710,
      "jtv": 4711,
      "kings": 4712,
      "lu": 4713,
      "ll": 4714,
      "lan": 4715,
      "lia": 4716,
      "landing": 4717,
      "lottery": 4718,
      "mult": 4719,
      "novelty": 4720,
      "obs": 4721,
      "pred": 4722,
      "privy": 4723,
      "pick": 4724,
      "past": 4725,
      "path": 4726,
      "rain": 4727,
      "rockefeller": 4728,
      "sol": 4729,
      "sbs": 4730,
      "vary": 4731,
      "voc": 4732,
      "wü": 4733,
      "wing": 4734,
      "words": 4735,
      "zeng": 4736,
      "âA": 4737,
      "âO": 4738,
      "âH": 4739,
      "##ek": 4740,
      "##sm": 4741,
      "##ious": 4742,
      "##iast": 4743,
      "##ny": 4744,
      "##ned": 4745,
      "##tel": 4746,
      "##ticip": 4747,
      "##hot": 4748,
      "##hare": 4749,
      "##oy": 4750,
      "##oard": 4751,
      "##rd": 4752,
      "##rt": 4753,
      "##rz": 4754,
      "##rate": 4755,
      "##fill": 4756,
      "##food": 4757,
      "##gs": 4758,
      "##gaming": 4759,
      "##maps": 4760,
      "##menu": 4761,
      "##cal": 4762,
      "##cation": 4763,
      "##core": 4764,
      "##comm": 4765,
      "##pst": 4766,
      "##pport": 4767,
      "##bro": 4768,
      "##bies": 4769,
      "##bly": 4770,
      "##bod": 4771,
      "##board": 4772,
      "##yal": 4773,
      "##yone": 4774,
      "##yegg": 4775,
      "##ky": 4776,
      "##ât": 4777,
      "##Â®": 4778,
      "##vest": 4779,
      "##21": 4780,
      "##TS": 4781,
      "##junction": 4782,
      "##joy": 4783,
      "##OP": 4784,
      "##121": 4785,
      "##Pal": 4786,
      "##Ex": 4787,
      "##LL": 4788,
      "##ße": 4789,
      "##ery": 4790,
      "##onst": 4791,
      "##atures": 4792,
      "##atible": 4793,
      "##oud": 4794,
      "thes": 4795,
      "##orate": 4796,
      "##orial": 4797,
      "##orily": 4798,
      "##ins": 4799,
      "##inions": 4800,
      "##inue": 4801,
      "thebl": 4802,
      "input": 4803,
      "inferred": 4804,
      "##its": 4805,
      "##itations": 4806,
      "anticip": 4807,
      "##inger": 4808,
      "##icants": 4809,
      "##edule": 4810,
      "##enge": 4811,
      "##enue": 4812,
      "##ford": 4813,
      "##fortable": 4814,
      "project": 4815,
      "protoc": 4816,
      "##ism": 4817,
      "##isible": 4818,
      "##lex": 4819,
      "##ars": 4820,
      "##arent": 4821,
      "usps": 4822,
      "rep": 4823,
      "rele": 4824,
      "rewards": 4825,
      "recurring": 4826,
      "informationâ": 4827,
      "##anced": 4828,
      "##ancy": 4829,
      "max": 4830,
      "##iled": 4831,
      "conjunction": 4832,
      "ourÂ": 4833,
      "##igate": 4834,
      "##cessary": 4835,
      "ascertain": 4836,
      "suite": 4837,
      "super": 4838,
      "suffic": 4839,
      "##ascript": 4840,
      "##cho": 4841,
      "##chtel": 4842,
      "##thus": 4843,
      "bechtel": 4844,
      "##estyle": 4845,
      "comfortable": 4846,
      "##recip": 4847,
      "##otes": 4848,
      "deploy": 4849,
      "##ompl": 4850,
      "##uted": 4851,
      "##quidation": 4852,
      "##ower": 4853,
      "Invest": 4854,
      "##clos": 4855,
      "abide": 4856,
      "abusive": 4857,
      "exchange": 4858,
      "##poses": 4859,
      "consist": 4860,
      "strive": 4861,
      "objects": 4862,
      "load": 4863,
      "loyal": 4864,
      "added": 4865,
      "left": 4866,
      "consents": 4867,
      "##ulary": 4868,
      "interoper": 4869,
      "privacyshield": 4870,
      "enjoy": 4871,
      "enthus": 4872,
      "transit": 4873,
      "##istory": 4874,
      "##under": 4875,
      "emplo": 4876,
      "emerg": 4877,
      "accompl": 4878,
      "##umer": 4879,
      "addressing": 4880,
      "whereby": 4881,
      "shares": 4882,
      "second": 4883,
      "chall": 4884,
      "##ivity": 4885,
      "##ivalent": 4886,
      "advertise": 4887,
      "##izes": 4888,
      "complied": 4889,
      "partiesâ": 4890,
      "authorize": 4891,
      "##ager": 4892,
      "##andme": 4893,
      "transferability": 4894,
      "someone": 4895,
      "requiring": 4896,
      "locator": 4897,
      "retaining": 4898,
      "restruct": 4899,
      "##irectly": 4900,
      "deviceâs": 4901,
      "improved": 4902,
      "independent": 4903,
      "choosing": 4904,
      "ups": 4905,
      "restricts": 4906,
      "##dershare": 4907,
      "plaza": 4908,
      "activate": 4909,
      "specify": 4910,
      "buttons": 4911,
      "desired": 4912,
      "desire": 4913,
      "individually": 4914,
      "recently": 4915,
      "recovery": 4916,
      "Using": 4917,
      "##ourg": 4918,
      "moreover": 4919,
      "##levision": 4920,
      "technological": 4921,
      "managed": 4922,
      "liable": 4923,
      "libr": 4924,
      "liquidation": 4925,
      "position": 4926,
      "##prices": 4927,
      "##print": 4928,
      "##tails": 4929,
      "apparent": 4930,
      "arise": 4931,
      "arrive": 4932,
      "obtaining": 4933,
      "contracted": 4934,
      "works": 4935,
      "demonst": 4936,
      "submission": 4937,
      "invitations": 4938,
      "safari": 4939,
      "appropriately": 4940,
      "effectively": 4941,
      "situated": 4942,
      "nonpublic": 4943,
      "opinions": 4944,
      "##fts": 4945,
      "employers": 4946,
      "Conn": 4947,
      "periodically": 4948,
      "analyzed": 4949,
      "theyâve": 4950,
      "##argeting": 4951,
      "##onsistent": 4952,
      "accepting": 4953,
      "statistically": 4954,
      "blue": 4955,
      "affected": 4956,
      "thereby": 4957,
      "passively": 4958,
      "reviewing": 4959,
      "associates": 4960,
      "##onymous": 4961,
      "blocked": 4962,
      "electronically": 4963,
      "##papers": 4964,
      "recognise": 4965,
      "recognised": 4966,
      "engine": 4967,
      "engaging": 4968,
      "finally": 4969,
      "incorpor": 4970,
      "inconsistent": 4971,
      "production": 4972,
      "continually": 4973,
      "prize": 4974,
      "##abulary": 4975,
      "personnel": 4976,
      "audio": 4977,
      "freely": 4978,
      "defence": 4979,
      "declining": 4980,
      "considering": 4981,
      "expanding": 4982,
      "afterwards": 4983,
      "anonymously": 4984,
      "corporation": 4985,
      "birthday": 4986,
      "overall": 4987,
      "accordingly": 4988,
      "tailoring": 4989,
      "occas": 4990,
      "Reuters": 4991,
      "firms": 4992,
      "commerce": 4993,
      "discont": 4994,
      "shopify": 4995,
      "actively": 4996,
      "Advertiser": 4997,
      "versions": 4998,
      "implementing": 4999,
      "Suite": 5000,
      "Subject": 5001,
      "Subs": 5002,
      "subsidiary": 5003,
      "Although": 5004,
      "valu": 5005,
      "Required": 5006,
      "clearly": 5007,
      "staff": 5008,
      "Login": 5009,
      "assessing": 5010,
      "banking": 5011,
      "##apital": 5012,
      "discussion": 5013,
      "Gfycatâs": 5014,
      "risks": 5015,
      "query": 5016,
      "continuous": 5017,
      "Community": 5018,
      "sensitivity": 5019,
      "Opting": 5020,
      "photograph": 5021,
      "expressed": 5022,
      "Among": 5023,
      "Withdraw": 5024,
      "collab": 5025,
      "Emails": 5026,
      "originated": 5027,
      "attrib": 5028,
      "Enforce": 5029,
      "background": 5030,
      "wargaming": 5031,
      "officecom": 5032,
      "placing": 5033,
      "distribute": 5034,
      "Regulation": 5035,
      "Switzerland": 5036,
      "equivalent": 5037,
      "Consent": 5038,
      "Consumer": 5039,
      "jointly": 5040,
      "OpenXâs": 5041,
      "deny": 5042,
      "justice": 5043,
      "moz": 5044,
      "usefulness": 5045,
      "Prevent": 5046,
      "PayPal": 5047,
      "donât": 5048,
      "advisors": 5049,
      "completion": 5050,
      "completing": 5051,
      "Additional": 5052,
      "Reservation": 5053,
      "Resource": 5054,
      "urgent": 5055,
      "##ningmaps": 5056,
      "##iversity": 5057,
      "America": 5058,
      "crime": 5059,
      "analytic": 5060,
      "Protecting": 5061,
      "merchants": 5062,
      "overriding": 5063,
      "warrants": 5064,
      "Department": 5065,
      "wondershare": 5066,
      "institution": 5067,
      "HTT": 5068,
      "driver": 5069,
      "driving": 5070,
      "lightningmaps": 5071,
      "##uetooth": 5072,
      "divine": 5073,
      "polit": 5074,
      "polls": 5075,
      "strateg": 5076,
      "endeavor": 5077,
      "endeavour": 5078,
      "Records": 5079,
      "buildings": 5080,
      "movie": 5081,
      "catalogue": 5082,
      "recruiters": 5083,
      "Features": 5084,
      "Update": 5085,
      "flights": 5086,
      "Interactive": 5087,
      "undertaking": 5088,
      "capable": 5089,
      "scrolled": 5090,
      "Disclos": 5091,
      "Guest": 5092,
      "Lowes": 5093,
      "Measure": 5094,
      "Purposes": 5095,
      "Parents": 5096,
      "marital": 5097,
      "paid": 5098,
      "##control": 5099,
      "Insider": 5100,
      "negative": 5101,
      "premium": 5102,
      "ownership": 5103,
      "capabilities": 5104,
      "0680": 5105,
      "23andme": 5106,
      "Billing": 5107,
      "COLL": 5108,
      "Corporation": 5109,
      "FedEx": 5110,
      "Furthermore": 5111,
      "Offer": 5112,
      "Visitors": 5113,
      "fastfood": 5114,
      "fields": 5115,
      "lifestyle": 5116,
      "serco": 5117,
      "samyone": 5118,
      "widely": 5119,
      "##burg": 5120,
      "threats": 5121,
      "subscribers": 5122,
      "##romotions": 5123,
      "entirely": 5124,
      "Uniform": 5125,
      "attempts": 5126,
      "diagnosis": 5127,
      "environment": 5128,
      "Publishers": 5129,
      "888": 5130,
      "Create": 5131,
      "Standard": 5132,
      "graphic": 5133,
      "irish": 5134,
      "moment": 5135,
      "piece": 5136,
      "package": 5137,
      "##many": 5138,
      "retailers": 5139,
      "separately": 5140,
      "prevailing": 5141,
      "invoicing": 5142,
      "surfing": 5143,
      "satisfactorily": 5144,
      "monetize": 5145,
      "principal": 5146,
      "benchmarkprivacy": 5147,
      "explicitly": 5148,
      "crashes": 5149,
      "overseas": 5150,
      "Snapside": 5151,
      "Surveys": 5152,
      "indefinitely": 5153,
      "About": 5154,
      "Bluetooth": 5155,
      "Beauty": 5156,
      "Costco": 5157,
      "Detect": 5158,
      "Fulfill": 5159,
      "Members": 5160,
      "NAME": 5161,
      "Vendors": 5162,
      "baby": 5163,
      "bought": 5164,
      "citizens": 5165,
      "crazyegg": 5166,
      "dmi": 5167,
      "germany": 5168,
      "hbp": 5169,
      "hobbies": 5170,
      "jumpst": 5171,
      "liabilities": 5172,
      "vocabulary": 5173,
      "würz": 5174,
      "wingify": 5175,
      "zenguard": 5176,
      "##iastnetwork": 5177,
      "##menuprices": 5178,
      "##brows": 5179,
      "##body": 5180,
      "theblaze": 5181,
      "protocols": 5182,
      "sufficient": 5183,
      "##recipes": 5184,
      "loyalty": 5185,
      "interoperable": 5186,
      "enthusiastnetwork": 5187,
      "employs": 5188,
      "emergency": 5189,
      "accomplish": 5190,
      "challenge": 5191,
      "restructuring": 5192,
      "library": 5193,
      "demonstrate": 5194,
      "discontinue": 5195,
      "officecomms": 5196,
      "fastfoodmenuprices": 5197,
      "samyonews": 5198,
      "jumpstart": 5199,
      "würzburg": 5200,
      "07": 5201,
      "3rd": 5202,
      "635": 5203,
      "95": 5204,
      "Av": 5205,
      "AT": 5206,
      "AC": 5207,
      "Ave": 5208,
      "Aust": 5209,
      "Author": 5210,
      "Bu": 5211,
      "CB": 5212,
      "Can": 5213,
      "Count": 5214,
      "Cli": 5215,
      "CON": 5216,
      "Center": 5217,
      "Capital": 5218,
      "Di": 5219,
      "DM": 5220,
      "DI": 5221,
      "Dou": 5222,
      "Date": 5223,
      "Driv": 5224,
      "Ed": 5225,
      "Elect": 5226,
      "Ent": 5227,
      "East": 5228,
      "Every": 5229,
      "Epic": 5230,
      "ETS": 5231,
      "Fri": 5232,
      "Family": 5233,
      "Fran": 5234,
      "Ge": 5235,
      "Hel": 5236,
      "Hold": 5237,
      "Honor": 5238,
      "History": 5239,
      "IK": 5240,
      "IMD": 5241,
      "Jo": 5242,
      "Job": 5243,
      "List": 5244,
      "Ma": 5245,
      "Maps": 5246,
      "NB": 5247,
      "Oc": 5248,
      "PO": 5249,
      "Pal": 5250,
      "Pos": 5251,
      "People": 5252,
      "Rad": 5253,
      "Rem": 5254,
      "Serv": 5255,
      "Session": 5256,
      "Sometimes": 5257,
      "Saf": 5258,
      "Save": 5259,
      "TV": 5260,
      "Tra": 5261,
      "Tel": 5262,
      "UD": 5263,
      "Vide": 5264,
      "View": 5265,
      "Wal": 5266,
      "Wind": 5267,
      "Ya": 5268,
      "Y8": 5269,
      "Yelp": 5270,
      "aid": 5271,
      "around": 5272,
      "bor": 5273,
      "bul": 5274,
      "brit": 5275,
      "bost": 5276,
      "cn": 5277,
      "cell": 5278,
      "cpa": 5279,
      "california": 5280,
      "coun": 5281,
      "du": 5282,
      "dr": 5283,
      "dig": 5284,
      "dial": 5285,
      "dys": 5286,
      "eg": 5287,
      "fit": 5288,
      "fur": 5289,
      "four": 5290,
      "france": 5291,
      "foo": 5292,
      "great": 5293,
      "gaming": 5294,
      "gau": 5295,
      "gsm": 5296,
      "hes": 5297,
      "hor": 5298,
      "jav": 5299,
      "lost": 5300,
      "lights": 5301,
      "mit": 5302,
      "mouse": 5303,
      "menu": 5304,
      "music": 5305,
      "now": 5306,
      "pract": 5307,
      "pse": 5308,
      "pty": 5309,
      "pub": 5310,
      "ren": 5311,
      "rate": 5312,
      "rating": 5313,
      "rob": 5314,
      "rather": 5315,
      "rank": 5316,
      "rule": 5317,
      "sn": 5318,
      "sy": 5319,
      "sect": 5320,
      "song": 5321,
      "sport": 5322,
      "spr": 5323,
      "sort": 5324,
      "tast": 5325,
      "touch": 5326,
      "vot": 5327,
      "visible": 5328,
      "watch": 5329,
      "xii": 5330,
      "yet": 5331,
      "âp": 5332,
      "âcl": 5333,
      "âID": 5334,
      "ïª": 5335,
      "##eth": 5336,
      "##event": 5337,
      "##iver": 5338,
      "##iant": 5339,
      "##iple": 5340,
      "##do": 5341,
      "##dating": 5342,
      "##due": 5343,
      "##aid": 5344,
      "##apt": 5345,
      "##ader": 5346,
      "##aving": 5347,
      "##auses": 5348,
      "##light": 5349,
      "##lobe": 5350,
      "##lines": 5351,
      "##no": 5352,
      "##nat": 5353,
      "##her": 5354,
      "##hance": 5355,
      "##hob": 5356,
      "##oot": 5357,
      "##oving": 5358,
      "##oods": 5359,
      "##rb": 5360,
      "##res": 5361,
      "##right": 5362,
      "##fet": 5363,
      "##face": 5364,
      "##functionality": 5365,
      "##gor": 5366,
      "##ging": 5367,
      "##grou": 5368,
      "##mt": 5369,
      "##mp": 5370,
      "##mary": 5371,
      "##mund": 5372,
      "##cent": 5373,
      "##pp": 5374,
      "##pets": 5375,
      "##bb": 5376,
      "##bon": 5377,
      "##yers": 5378,
      "##ker": 5379,
      "##Mat": 5380,
      "##SI": 5381,
      "##âout": 5382,
      "##âwh": 5383,
      "##wor": 5384,
      "##with": 5385,
      "##west": 5386,
      "##zing": 5387,
      "##Kit": 5388,
      "##view": 5389,
      "##vency": 5390,
      "##61": 5391,
      "##28": 5392,
      "##27": 5393,
      "##Th": 5394,
      "##TN": 5395,
      "##TOP": 5396,
      "##And": 5397,
      "##jud": 5398,
      "##OT": 5399,
      "##Promotions": 5400,
      "##CO": 5401,
      "##RECT": 5402,
      "##ero": 5403,
      "##onhob": 5404,
      "##atives": 5405,
      "thir": 5406,
      "three": 5407,
      "##ority": 5408,
      "##ino": 5409,
      "##ince": 5410,
      "tot": 5411,
      "too": 5412,
      "tool": 5413,
      "told": 5414,
      "##ionate": 5415,
      "inactive": 5416,
      "inno": 5417,
      "##iting": 5418,
      "##iture": 5419,
      "##ington": 5420,
      "##icates": 5421,
      "##ena": 5422,
      "andÂ": 5423,
      "proves": 5424,
      "##ership": 5425,
      "##ises": 5426,
      "##isation": 5427,
      "##isle": 5428,
      "##lephone": 5429,
      "##arta": 5430,
      "codes": 5431,
      "##essional": 5432,
      "maps": 5433,
      "##vey": 5434,
      "conform": 5435,
      "convey": 5436,
      "##tack": 5437,
      "##igence": 5438,
      "##erves": 5439,
      "##ides": 5440,
      "##idge": 5441,
      "##idents": 5442,
      "##chut": 5443,
      "##estions": 5444,
      "##estiture": 5445,
      "coming": 5446,
      "whol": 5447,
      "ones": 5448,
      "##rel": 5449,
      "##reens": 5450,
      "##cel": 5451,
      "##ceived": 5452,
      "##thern": 5453,
      "##older": 5454,
      "##olved": 5455,
      "##olvency": 5456,
      "notified": 5457,
      "##ows": 5458,
      "anyone": 5459,
      "anything": 5460,
      "##imal": 5461,
      "##clus": 5462,
      "alone": 5463,
      "alternative": 5464,
      "algor": 5465,
      "##raße": 5466,
      "purge": 5467,
      "##standing": 5468,
      "##straße": 5469,
      "attack": 5470,
      "trend": 5471,
      "exclud": 5472,
      "exceed": 5473,
      "consult": 5474,
      "objectives": 5475,
      "loan": 5476,
      "never": 5477,
      "addevent": 5478,
      "shut": 5479,
      "uncomm": 5480,
      "undue": 5481,
      "unres": 5482,
      "leaving": 5483,
      "##ull": 5484,
      "##ulting": 5485,
      "Servicesâ": 5486,
      "resellers": 5487,
      "reserves": 5488,
      "##ptop": 5489,
      "transition": 5490,
      "##cisco": 5491,
      "##aint": 5492,
      "##lets": 5493,
      "##leting": 5494,
      "offences": 5495,
      "##endar": 5496,
      "lab": 5497,
      "laptop": 5498,
      "##onglobe": 5499,
      "##ongoods": 5500,
      "longitude": 5501,
      "fees": 5502,
      "Thames": 5503,
      "region": 5504,
      "##izonhob": 5505,
      "complies": 5506,
      "supporting": 5507,
      "##llation": 5508,
      "percent": 5509,
      "perceived": 5510,
      "##andise": 5511,
      "relig": 5512,
      "relied": 5513,
      "numer": 5514,
      "lawyers": 5515,
      "##criber": 5516,
      "prejud": 5517,
      "necessity": 5518,
      "Siteâs": 5519,
      "##ordingly": 5520,
      "impos": 5521,
      "image": 5522,
      "impress": 5523,
      "professional": 5524,
      "setup": 5525,
      "directions": 5526,
      "directory": 5527,
      "Tool": 5528,
      "Today": 5529,
      "techniqu": 5530,
      "quot": 5531,
      "quizlet": 5532,
      "formally": 5533,
      "functioning": 5534,
      "helping": 5535,
      "helpful": 5536,
      "communities": 5537,
      "class": 5538,
      "cloud": 5539,
      "##ippets": 5540,
      "##istered": 5541,
      "##portionate": 5542,
      "indicating": 5543,
      "independ": 5544,
      "indirectly": 5545,
      "##ractors": 5546,
      "examples": 5547,
      "tracked": 5548,
      "Dataâ": 5549,
      "followers": 5550,
      "saved": 5551,
      "button": 5552,
      "individualâs": 5553,
      "recalls": 5554,
      "Usâ": 5555,
      "reading": 5556,
      "readers": 5557,
      "phones": 5558,
      "##levant": 5559,
      "manners": 5560,
      "revisit": 5561,
      "revocation": 5562,
      "asset": 5563,
      "assum": 5564,
      "relevance": 5565,
      "channel": 5566,
      "appoint": 5567,
      "regardless": 5568,
      "arms": 5569,
      "working": 5570,
      "cars": 5571,
      "carbon": 5572,
      "subcont": 5573,
      "Customize": 5574,
      "receivership": 5575,
      "behaviors": 5576,
      "##works": 5577,
      "properties": 5578,
      "goes": 5579,
      "goal": 5580,
      "goals": 5581,
      "describes": 5582,
      "simpl": 5583,
      "ensured": 5584,
      "deliveries": 5585,
      "##istrator": 5586,
      "##istrators": 5587,
      "discloses": 5588,
      "internally": 5589,
      "listing": 5590,
      "listen": 5591,
      "nona": 5592,
      "believes": 5593,
      "resides": 5594,
      "Comp": 5595,
      "Comply": 5596,
      "obligated": 5597,
      "responded": 5598,
      "enforceable": 5599,
      "locally": 5600,
      "localized": 5601,
      "holding": 5602,
      "recording": 5603,
      "acceptance": 5604,
      "safeguarded": 5605,
      "memory": 5606,
      "lawfully": 5607,
      "clause": 5608,
      "doesn": 5609,
      "passport": 5610,
      "profileâ": 5611,
      "infringed": 5612,
      "Story": 5613,
      "subscriber": 5614,
      "head": 5615,
      "ended": 5616,
      "stops": 5617,
      "letters": 5618,
      "searched": 5619,
      "associations": 5620,
      "openload": 5621,
      "Anonymous": 5622,
      "refun": 5623,
      "satisfy": 5624,
      "investments": 5625,
      "##ognize": 5626,
      "recognizing": 5627,
      "recognizes": 5628,
      "customersâ": 5629,
      "passwords": 5630,
      "investigating": 5631,
      "final": 5632,
      "financing": 5633,
      "developed": 5634,
      "IDFA": 5635,
      "conducted": 5636,
      "monitors": 5637,
      "Accordingly": 5638,
      "prizes": 5639,
      "informal": 5640,
      "uniquely": 5641,
      "##abilities": 5642,
      "agreed": 5643,
      "selections": 5644,
      "##cription": 5645,
      "governing": 5646,
      "governed": 5647,
      "Unique": 5648,
      "merge": 5649,
      "declined": 5650,
      "consideration": 5651,
      "expand": 5652,
      "Analyzing": 5653,
      "Otherwise": 5654,
      "reported": 5655,
      "Identification": 5656,
      "acquire": 5657,
      "Developer": 5658,
      "Details": 5659,
      "score": 5660,
      "Necessary": 5661,
      "##enschut": 5662,
      "patients": 5663,
      "displaying": 5664,
      "100": 5665,
      "Query": 5666,
      "Questions": 5667,
      "Sears": 5668,
      "designs": 5669,
      "mista": 5670,
      "Rewards": 5671,
      "internationally": 5672,
      "advance": 5673,
      "condition": 5674,
      "Shell": 5675,
      "facility": 5676,
      "organizing": 5677,
      "##ilding": 5678,
      "contains": 5679,
      "auditors": 5680,
      "Already": 5681,
      "Telephone": 5682,
      "easy": 5683,
      "insolvency": 5684,
      "dealing": 5685,
      "Onair": 5686,
      "bugs": 5687,
      "establishing": 5688,
      "guest": 5689,
      "guests": 5690,
      "seekers": 5691,
      "##ashboard": 5692,
      "questionna": 5693,
      "organisational": 5694,
      "initiative": 5695,
      "optimization": 5696,
      "connections": 5697,
      "confident": 5698,
      "Exper": 5699,
      "evaluation": 5700,
      "##azon": 5701,
      "##azines": 5702,
      "presenting": 5703,
      "depend": 5704,
      "smn": 5705,
      "smooth": 5706,
      "##007": 5707,
      "timesta": 5708,
      "Newspapers": 5709,
      "NewsAnd": 5710,
      "Communicating": 5711,
      "corresponding": 5712,
      "education": 5713,
      "Employ": 5714,
      "Amazon": 5715,
      "populate": 5716,
      "guaranteed": 5717,
      "Check": 5718,
      "Clauses": 5719,
      "edits": 5720,
      "editorial": 5721,
      "##bridge": 5722,
      "Enhance": 5723,
      "Wik": 5724,
      "places": 5725,
      "characters": 5726,
      "Technology": 5727,
      "Manager": 5728,
      "calottery": 5729,
      "calendar": 5730,
      "latitude": 5731,
      "titles": 5732,
      "##enger": 5733,
      "preset": 5734,
      "preservation": 5735,
      "Atl": 5736,
      "Attention": 5737,
      "Marketplace": 5738,
      "denny": 5739,
      "justif": 5740,
      "Operations": 5741,
      "forwarded": 5742,
      "possess": 5743,
      "involvement": 5744,
      "acquirer": 5745,
      "viii": 5746,
      "2016": 5747,
      "Pins": 5748,
      "Reservations": 5749,
      "rental": 5750,
      "##ralia": 5751,
      "impacts": 5752,
      "merchandise": 5753,
      "buyer": 5754,
      "Automatic": 5755,
      "uploaded": 5756,
      "Root": 5757,
      "mindbody": 5758,
      "role": 5759,
      "road": 5760,
      "rooms": 5761,
      "adrollgrou": 5762,
      "permanent": 5763,
      "friendly": 5764,
      "Earth911âs": 5765,
      "140": 5766,
      "Finally": 5767,
      "globe": 5768,
      "hosts": 5769,
      "minimal": 5770,
      "schem": 5771,
      "schedule": 5772,
      "volunteered": 5773,
      "destinations": 5774,
      "eligible": 5775,
      "Similarly": 5776,
      "breaches": 5777,
      "Generally": 5778,
      "divestiture": 5779,
      "key": 5780,
      "strong": 5781,
      "studies": 5782,
      "Recognize": 5783,
      "programmers": 5784,
      "terminate": 5785,
      "âcookiesâ": 5786,
      "catalogs": 5787,
      "recruiting": 5788,
      "Updating": 5789,
      "airline": 5790,
      "airways": 5791,
      "coupon": 5792,
      "coupons": 5793,
      "flight": 5794,
      "realself": 5795,
      "regularly": 5796,
      "hearst": 5797,
      "scrolling": 5798,
      "Preference": 5799,
      "Likewise": 5800,
      "Display": 5801,
      "Lower": 5802,
      "Local": 5803,
      "Locators": 5804,
      "Purch": 5805,
      "Southwest": 5806,
      "body": 5807,
      "derived": 5808,
      "routing": 5809,
      "Insurance": 5810,
      "extra": 5811,
      "extend": 5812,
      "negot": 5813,
      "cancellation": 5814,
      "behavioural": 5815,
      "capability": 5816,
      "initiatives": 5817,
      "html": 5818,
      "Choose": 5819,
      "North": 5820,
      "Northern": 5821,
      "farfet": 5822,
      "repeat": 5823,
      "repeated": 5824,
      "unlikely": 5825,
      "Program": 5826,
      "Programs": 5827,
      "referrer": 5828,
      "capture": 5829,
      "Contractual": 5830,
      "calculate": 5831,
      "HTML5": 5832,
      "3000": 5833,
      "9410": 5834,
      "AutoTrader": 5835,
      "Deliver": 5836,
      "Responding": 5837,
      "YOUR": 5838,
      "epicgames": 5839,
      "lsac": 5840,
      "malware": 5841,
      "mandatory": 5842,
      "sessions": 5843,
      "##Check": 5844,
      "promptly": 5845,
      "cooperation": 5846,
      "delay": 5847,
      "nearby": 5848,
      "cheating": 5849,
      "planning": 5850,
      "approximate": 5851,
      "remedy": 5852,
      "##pshift": 5853,
      "geography": 5854,
      "Submissions": 5855,
      "charged": 5856,
      "Glassdo": 5857,
      "8fit": 5858,
      "84121": 5859,
      "Lake": 5860,
      "Maintain": 5861,
      "Moreover": 5862,
      "Salt": 5863,
      "affords": 5864,
      "datenschut": 5865,
      "figure": 5866,
      "grow": 5867,
      "hotel": 5868,
      "kingsisle": 5869,
      "multiple": 5870,
      "predict": 5871,
      "rainier": 5872,
      "solutions": 5873,
      "âHow": 5874,
      "##hots": 5875,
      "thescore": 5876,
      "anticipated": 5877,
      "released": 5878,
      "maximum": 5879,
      "consists": 5880,
      "collaborate": 5881,
      "attributes": 5882,
      "COLLECT": 5883,
      "Fulfillment": 5884,
      "6350": 5885,
      "ATTN": 5886,
      "Australia": 5887,
      "Building": 5888,
      "CBS": 5889,
      "DIRECT": 5890,
      "Electron": 5891,
      "Francisco": 5892,
      "Geolocation": 5893,
      "Helpshift": 5894,
      "Holdings": 5895,
      "IKEA": 5896,
      "IMDb": 5897,
      "NBC": 5898,
      "PeopleMat": 5899,
      "Radio": 5900,
      "Removing": 5901,
      "UDID": 5902,
      "Windows": 5903,
      "Yahoo": 5904,
      "border": 5905,
      "british": 5906,
      "bostonglobe": 5907,
      "cnil": 5908,
      "dyson": 5909,
      "footer": 5910,
      "gauge": 5911,
      "gsmar": 5912,
      "hesitate": 5913,
      "horizonhob": 5914,
      "javascript": 5915,
      "lightspeed": 5916,
      "mitigate": 5917,
      "practice": 5918,
      "pseud": 5919,
      "pubg": 5920,
      "renew": 5921,
      "snippets": 5922,
      "sections": 5923,
      "âpersonal": 5924,
      "âclick": 5925,
      "##âwhich": 5926,
      "innovid": 5927,
      "wholly": 5928,
      "##reenshots": 5929,
      "algorith": 5930,
      "attacks": 5931,
      "exceeded": 5932,
      "uncommongoods": 5933,
      "unresolved": 5934,
      "percentage": 5935,
      "prejudice": 5936,
      "techniques": 5937,
      "independently": 5938,
      "appointment": 5939,
      "carbonite": 5940,
      "subcontractors": 5941,
      "questionnaire": 5942,
      "NewsAndPromotions": 5943,
      "adrollgroup": 5944,
      "farfetch": 5945,
      "Glassdoor": 5946,
      "datenschutz": 5947,
      "DIRECTV": 5948,
      "PeopleMatter": 5949,
      "horizonhobby": 5950,
      "1a": 5951,
      "44": 5952,
      "40": 5953,
      "55": 5954,
      "511": 5955,
      "69": 5956,
      "60": 5957,
      "67": 5958,
      "6EN": 5959,
      "8n": 5960,
      "AR": 5961,
      "Act": 5962,
      "Authent": 5963,
      "Aven": 5964,
      "AAd": 5965,
      "Art": 5966,
      "Br": 5967,
      "Bes": 5968,
      "Bing": 5969,
      "Bel": 5970,
      "Back": 5971,
      "Box": 5972,
      "CM": 5973,
      "CP": 5974,
      "CD": 5975,
      "Cra": 5976,
      "Cern": 5977,
      "Call": 5978,
      "Care": 5979,
      "Categ": 5980,
      "Clear": 5981,
      "Campaign": 5982,
      "Corr": 5983,
      "Correct": 5984,
      "CRM": 5985,
      "Code": 5986,
      "DO": 5987,
      "DP": 5988,
      "DC": 5989,
      "Des": 5990,
      "Dig": 5991,
      "Direct": 5992,
      "Dubl": 5993,
      "Due": 5994,
      "During": 5995,
      "Dashboard": 5996,
      "Est": 5997,
      "Each": 5998,
      "Edit": 5999,
      "Ext": 6000,
      "Even": 6001,
      "Functional": 6002,
      "Functionality": 6003,
      "GA": 6004,
      "Give": 6005,
      "Game": 6006,
      "HO": 6007,
      "Ham": 6008,
      "Here": 6009,
      "Hive": 6010,
      "Hab": 6011,
      "Have": 6012,
      "Hear": 6013,
      "IB": 6014,
      "ICO": 6015,
      "Keep": 6016,
      "Kingdom": 6017,
      "Las": 6018,
      "Lir": 6019,
      "Let": 6020,
      "Lark": 6021,
      "Mer": 6022,
      "Mar": 6023,
      "Mess": 6024,
      "Mac": 6025,
      "Mill": 6026,
      "Mag": 6027,
      "Mod": 6028,
      "Mailing": 6029,
      "Music": 6030,
      "NP": 6031,
      "Names": 6032,
      "National": 6033,
      "NPI": 6034,
      "NOT": 6035,
      "OS": 6036,
      "ON": 6037,
      "OR": 6038,
      "Others": 6039,
      "OUR": 6040,
      "Ph": 6041,
      "PR": 6042,
      "Priv": 6043,
      "Polic": 6044,
      "Pages": 6045,
      "Pix": 6046,
      "Promot": 6047,
      "Paid": 6048,
      "Ret": 6049,
      "Si": 6050,
      "Sa": 6051,
      "Spe": 6052,
      "SDK": 6053,
      "Speed": 6054,
      "Sellers": 6055,
      "STOP": 6056,
      "Ta": 6057,
      "TM": 6058,
      "TO": 6059,
      "TH": 6060,
      "Tot": 6061,
      "Tags": 6062,
      "Talent": 6063,
      "UT": 6064,
      "Vi": 6065,
      "VA": 6066,
      "Vol": 6067,
      "Vim": 6068,
      "Veg": 6069,
      "VRS": 6070,
      "Wr": 6071,
      "WS": 6072,
      "WA": 6073,
      "Wed": 6074,
      "West": 6075,
      "Way": 6076,
      "Wash": 6077,
      "au": 6078,
      "aer": 6079,
      "aim": 6080,
      "aver": 6081,
      "bat": 6082,
      "bag": 6083,
      "band": 6084,
      "bring": 6085,
      "bound": 6086,
      "bund": 6087,
      "bau": 6088,
      "bbb": 6089,
      "cin": 6090,
      "core": 6091,
      "cach": 6092,
      "ds": 6093,
      "da": 6094,
      "dp": 6095,
      "db": 6096,
      "dnt": 6097,
      "dict": 6098,
      "daily": 6099,
      "ev": 6100,
      "eB": 6101,
      "ele": 6102,
      "eth": 6103,
      "fis": 6104,
      "fil": 6105,
      "fight": 6106,
      "filing": 6107,
      "fare": 6108,
      "font": 6109,
      "falls": 6110,
      "finger": 6111,
      "gin": 6112,
      "gety": 6113,
      "gfycat": 6114,
      "hm": 6115,
      "hp": 6116,
      "har": 6117,
      "hud": 6118,
      "ice": 6119,
      "jw": 6120,
      "jon": 6121,
      "jour": 6122,
      "jones": 6123,
      "ki": 6124,
      "kas": 6125,
      "kron": 6126,
      "lf": 6127,
      "lar": 6128,
      "lie": 6129,
      "lender": 6130,
      "mission": 6131,
      "mort": 6132,
      "mmt": 6133,
      "nat": 6134,
      "ou": 6135,
      "overs": 6136,
      "pin": 6137,
      "pose": 6138,
      "pron": 6139,
      "plex": 6140,
      "power": 6141,
      "pull": 6142,
      "qs": 6143,
      "rn": 6144,
      "rac": 6145,
      "riv": 6146,
      "rates": 6147,
      "si": 6148,
      "sk": 6149,
      "servic": 6150,
      "sures": 6151,
      "solic": 6152,
      "say": 6153,
      "sony": 6154,
      "since": 6155,
      "saint": 6156,
      "tu": 6157,
      "tro": 6158,
      "talent": 6159,
      "uber": 6160,
      "uph": 6161,
      "vir": 6162,
      "vac": 6163,
      "vul": 6164,
      "viv": 6165,
      "vital": 6166,
      "venue": 6167,
      "wc": 6168,
      "wall": 6169,
      "warn": 6170,
      "water": 6171,
      "xiv": 6172,
      "xpress": 6173,
      "yel": 6174,
      "yoss": 6175,
      "ze": 6176,
      "zl": 6177,
      "zam": 6178,
      "âS": 6179,
      "âG": 6180,
      "âU": 6181,
      "âC": 6182,
      "âR": 6183,
      "âD": 6184,
      "âL": 6185,
      "âun": 6186,
      "âde": 6187,
      "âdata": 6188,
      "âIn": 6189,
      "âCh": 6190,
      "âview": 6191,
      "##ee": 6192,
      "##eP": 6193,
      "##ein": 6194,
      "##een": 6195,
      "##sâ": 6196,
      "##sis": 6197,
      "##sim": 6198,
      "##sage": 6199,
      "##ior": 6200,
      "##ibly": 6201,
      "##ding": 6202,
      "##dem": 6203,
      "##uit": 6204,
      "##ubs": 6205,
      "##uide": 6206,
      "##uck": 6207,
      "##utable": 6208,
      "##ault": 6209,
      "##lor": 6210,
      "##list": 6211,
      "##link": 6212,
      "##nic": 6213,
      "##nal": 6214,
      "##nick": 6215,
      "##nair": 6216,
      "##niversal": 6217,
      "##nancy": 6218,
      "##tical": 6219,
      "##tex": 6220,
      "##teen": 6221,
      "##tuit": 6222,
      "##hand": 6223,
      "##held": 6224,
      "##hens": 6225,
      "##health": 6226,
      "##holder": 6227,
      "##oin": 6228,
      "##oph": 6229,
      "##oother": 6230,
      "##oven": 6231,
      "##ohoo": 6232,
      "##ocho": 6233,
      "##ration": 6234,
      "##rase": 6235,
      "##rust": 6236,
      "##rights": 6237,
      "##fe": 6238,
      "##fish": 6239,
      "##fron": 6240,
      "##xy": 6241,
      "##xst": 6242,
      "##xem": 6243,
      "##ga": 6244,
      "##gl": 6245,
      "##go": 6246,
      "##got": 6247,
      "##gate": 6248,
      "##gress": 6249,
      "##gnancy": 6250,
      "##ming": 6251,
      "##mart": 6252,
      "##mail": 6253,
      "##media": 6254,
      "##mford": 6255,
      "##mmary": 6256,
      "##cin": 6257,
      "##care": 6258,
      "##cution": 6259,
      "##california": 6260,
      "##cup": 6261,
      "##cOS": 6262,
      "##citing": 6263,
      "##pix": 6264,
      "##ptable": 6265,
      "##patch": 6266,
      "##bu": 6267,
      "##bing": 6268,
      "##bet": 6269,
      "##bub": 6270,
      "##bourg": 6271,
      "##Fly": 6272,
      "##ked": 6273,
      "##kick": 6274,
      "##Mas": 6275,
      "##Service": 6276,
      "##wall": 6277,
      "##IES": 6278,
      "##zz": 6279,
      "##zar": 6280,
      "##zel": 6281,
      "##KIES": 6282,
      "##vu": 6283,
      "##vit": 6284,
      "##vil": 6285,
      "##vantage": 6286,
      "##vanced": 6287,
      "##votes": 6288,
      "##Ns": 6289,
      "##NA": 6290,
      "##Notes": 6291,
      "##65": 6292,
      "##901": 6293,
      "##961": 6294,
      "##2h": 6295,
      "##201": 6296,
      "##210": 6297,
      "##227": 6298,
      "##TA": 6299,
      "##Tub": 6300,
      "##TAC": 6301,
      "##080": 6302,
      "##Auto": 6303,
      "##Art": 6304,
      "##Amedia": 6305,
      "##51": 6306,
      "##jority": 6307,
      "##OKIES": 6308,
      "##16": 6309,
      "##Universal": 6310,
      "##Cho": 6311,
      "##Code": 6312,
      "##ERS": 6313,
      "##36": 6314,
      "##30": 6315,
      "##31": 6316,
      "##3R": 6317,
      "##LY": 6318,
      "##75": 6319,
      "##710": 6320,
      "##era": 6321,
      "##erome": 6322,
      "##ercial": 6323,
      "##ontact": 6324,
      "##onven": 6325,
      "##aters": 6326,
      "##atist": 6327,
      "##atix": 6328,
      "##atio": 6329,
      "##outa": 6330,
      "thus": 6331,
      "##oring": 6332,
      "##orage": 6333,
      "##oranker": 6334,
      "##ination": 6335,
      "##inity": 6336,
      "##inition": 6337,
      "took": 6338,
      "toll": 6339,
      "theÂ": 6340,
      "thele": 6341,
      "##itions": 6342,
      "##rother": 6343,
      "##ingbridge": 6344,
      "##ico": 6345,
      "##icag": 6346,
      "##ales": 6347,
      "##allow": 6348,
      "##aland": 6349,
      "##alian": 6350,
      "##urally": 6351,
      "andad": 6352,
      "propos": 6353,
      "prose": 6354,
      "proof": 6355,
      "proxy": 6356,
      "progress": 6357,
      "##lefish": 6358,
      "orÂ": 6359,
      "orbrows": 6360,
      "yourÂ": 6361,
      "yourcalifornia": 6362,
      "##arzel": 6363,
      "remot": 6364,
      "reenter": 6365,
      "covers": 6366,
      "mag": 6367,
      "map": 6368,
      "macOS": 6369,
      "majority": 6370,
      "##velling": 6371,
      "##ilt": 6372,
      "##enture": 6373,
      "const": 6374,
      "conclus": 6375,
      "weight": 6376,
      "##tag": 6377,
      "personalisation": 6378,
      "##igration": 6379,
      "withd": 6380,
      "fore": 6381,
      "forget": 6382,
      "forgot": 6383,
      "##erver": 6384,
      "##erved": 6385,
      "mayÂ": 6386,
      "##ided": 6387,
      "##idel": 6388,
      "summary": 6389,
      "##aser": 6390,
      "##chive": 6391,
      "##ried": 6392,
      "becom": 6393,
      "beeth": 6394,
      "##iring": 6395,
      "##irety": 6396,
      "whate": 6397,
      "onel": 6398,
      "onto": 6399,
      "##osk": 6400,
      "##osed": 6401,
      "##tering": 6402,
      "##reem": 6403,
      "##relate": 6404,
      "##rehens": 6405,
      "##otic": 6406,
      "##otnick": 6407,
      "death": 6408,
      "developer": 6409,
      "##omag": 6410,
      "adult": 6411,
      "adapt": 6412,
      "adher": 6413,
      "##ceptable": 6414,
      "##utive": 6415,
      "##etic": 6416,
      "##eters": 6417,
      "Weber": 6418,
      "##olations": 6419,
      "accel": 6420,
      "##acity": 6421,
      "##lectual": 6422,
      "##imation": 6423,
      "##imize": 6424,
      "##imedia": 6425,
      "Intuit": 6426,
      "alph": 6427,
      "abg": 6428,
      "abouta": 6429,
      "##raws": 6430,
      "##pline": 6431,
      "##plicates": 6432,
      "##tactical": 6433,
      "##stein": 6434,
      "isky": 6435,
      "##geek": 6436,
      "##ills": 6437,
      "expos": 6438,
      "extended": 6439,
      "exciting": 6440,
      "string": 6441,
      "stock": 6442,
      "starta": 6443,
      "streem": 6444,
      "thise": 6445,
      "##amp": 6446,
      "##ameters": 6447,
      "objecting": 6448,
      "willing": 6449,
      "italian": 6450,
      "addu": 6451,
      "university": 6452,
      "interface": 6453,
      "apart": 6454,
      "reservations": 6455,
      "resulting": 6456,
      "##ption": 6457,
      "transl": 6458,
      "transpar": 6459,
      "transmissions": 6460,
      "##uction": 6461,
      "certainfunctionality": 6462,
      "##istic": 6463,
      "##isters": 6464,
      "##istol": 6465,
      "##unci": 6466,
      "compatible": 6467,
      "compiled": 6468,
      "comprehens": 6469,
      "timera": 6470,
      "accoun": 6471,
      "accenture": 6472,
      "timely": 6473,
      "##umo": 6474,
      "##elite": 6475,
      "##ellectual": 6476,
      "YouTub": 6477,
      "offs": 6478,
      "laid": 6479,
      "launder": 6480,
      "##ogin": 6481,
      "seocho": 6482,
      "##usa": 6483,
      "##usal": 6484,
      "##ineTra": 6485,
      "##arkNotes": 6486,
      "whichever": 6487,
      "##vertisers": 6488,
      "chuck": 6489,
      "##arketing": 6490,
      "pleaseÂ": 6491,
      "##ctionary": 6492,
      "few": 6493,
      "disk": 6494,
      "dispro": 6495,
      "disability": 6496,
      "disaster": 6497,
      "disallow": 6498,
      "Those": 6499,
      "Thank": 6500,
      "regional": 6501,
      "registers": 6502,
      "bask": 6503,
      "##derators": 6504,
      "compliant": 6505,
      "##antArt": 6506,
      "authorization": 6507,
      "authorised": 6508,
      "applicants": 6509,
      "europe": 6510,
      "euprivacy": 6511,
      "complaining": 6512,
      "portable": 6513,
      "##ague": 6514,
      "##agerial": 6515,
      "##ands": 6516,
      "featured": 6517,
      "television": 6518,
      "identifications": 6519,
      "broader": 6520,
      "broker": 6521,
      "pregnancy": 6522,
      "necessarily": 6523,
      "##isha": 6524,
      "imprint": 6525,
      "imvu": 6526,
      "sitepoint": 6527,
      "lodging": 6528,
      "profiled": 6529,
      "throughout": 6530,
      "##ponge": 6531,
      "##ada": 6532,
      "##reddit": 6533,
      "Topix": 6534,
      "visitorsâ": 6535,
      "acts": 6536,
      "allrecipes": 6537,
      "technique": 6538,
      "quora": 6539,
      "former": 6540,
      "##odread": 6541,
      "ordered": 6542,
      "communicated": 6543,
      "improves": 6544,
      "club": 6545,
      "closed": 6546,
      "namely": 6547,
      "speak": 6548,
      "Serviceâs": 6549,
      "cortex": 6550,
      "correlate": 6551,
      "##velup": 6552,
      "controlling": 6553,
      "affirm": 6554,
      "affinity": 6555,
      "followed": 6556,
      "plans": 6557,
      "##viantArt": 6558,
      "Whom": 6559,
      "##support": 6560,
      "##bscribed": 6561,
      "activation": 6562,
      "##asons": 6563,
      "##cific": 6564,
      "specification": 6565,
      "specifying": 6566,
      "description": 6567,
      "recover": 6568,
      "groupon": 6569,
      "Used": 6570,
      "researchers": 6571,
      "researchgate": 6572,
      "managerial": 6573,
      "revise": 6574,
      "customerâs": 6575,
      "assure": 6576,
      "remarketing": 6577,
      "publication": 6578,
      "publications": 6579,
      "appoin": 6580,
      "argent": 6581,
      "archive": 6582,
      "caringbridge": 6583,
      "rectified": 6584,
      "intend": 6585,
      "intell": 6586,
      "intellectual": 6587,
      "partnersâ": 6588,
      "subreddit": 6589,
      "wellness": 6590,
      "Customizing": 6591,
      "signal": 6592,
      "signup": 6593,
      "invite": 6594,
      "seeing": 6595,
      "affiliations": 6596,
      "Whenever": 6597,
      "correcting": 6598,
      "clickÂ": 6599,
      "storefron": 6600,
      "interacts": 6601,
      "interacted": 6602,
      "generation": 6603,
      "supports": 6604,
      "prevented": 6605,
      "paying": 6606,
      "opinion": 6607,
      "statute": 6608,
      "AdS": 6609,
      "Advanced": 6610,
      "##cipients": 6611,
      "CustomerService": 6612,
      "cardholder": 6613,
      "Condit": 6614,
      "participants": 6615,
      "analyzes": 6616,
      "analyzers": 6617,
      "furtherance": 6618,
      "reference": 6619,
      "adsâ": 6620,
      "regulated": 6621,
      "regulators": 6622,
      "##vision": 6623,
      "locale": 6624,
      "variations": 6625,
      "domains": 6626,
      "holds": 6627,
      "recorded": 6628,
      "##assment": 6629,
      "trader": 6630,
      "training": 6631,
      "tradem": 6632,
      "travelling": 6633,
      "unsubscribed": 6634,
      "safeguarding": 6635,
      "enters": 6636,
      "entrust": 6637,
      "entirety": 6638,
      "copyright": 6639,
      "totalcontrol": 6640,
      "carriers": 6641,
      "Goodread": 6642,
      "swed": 6643,
      "coordinate": 6644,
      "coordinates": 6645,
      "owns": 6646,
      "mediaÂ": 6647,
      "therein": 6648,
      "Provided": 6649,
      "creative": 6650,
      "elected": 6651,
      "passing": 6652,
      "category": 6653,
      "##athan": 6654,
      "Store": 6655,
      "Stream": 6656,
      "Stores": 6657,
      "Statist": 6658,
      "Storage": 6659,
      "himself": 6660,
      "##nerabilities": 6661,
      "pursuing": 6662,
      "telem": 6663,
      "associating": 6664,
      "Ann": 6665,
      "hereunder": 6666,
      "refers": 6667,
      "refund": 6668,
      "refusal": 6669,
      "amended": 6670,
      "electronics": 6671,
      "anonymize": 6672,
      "customerservice": 6673,
      "investigative": 6674,
      "enhanced": 6675,
      "incident": 6676,
      "incidents": 6677,
      "inconven": 6678,
      "very": 6679,
      "Player": 6680,
      "Plug": 6681,
      "prices": 6682,
      "princi": 6683,
      "informing": 6684,
      "gathering": 6685,
      "audiences": 6686,
      "police": 6687,
      "beforehand": 6688,
      "selection": 6689,
      "##criptions": 6690,
      "Under": 6691,
      "Unless": 6692,
      "University": 6693,
      "definition": 6694,
      "analysing": 6695,
      "instruction": 6696,
      "instructing": 6697,
      "declared": 6698,
      "dispute": 6699,
      "issuer": 6700,
      "expire": 6701,
      "fulfilment": 6702,
      "Analysis": 6703,
      "Analytical": 6704,
      "##anging": 6705,
      "Identifies": 6706,
      "allegations": 6707,
      "Deter": 6708,
      "Defin": 6709,
      "Deleting": 6710,
      "DeviantArt": 6711,
      "screenshots": 6712,
      "Networks": 6713,
      "handheld": 6714,
      "##enses": 6715,
      "consumption": 6716,
      "para": 6717,
      "parameters": 6718,
      "10007": 6719,
      "Second": 6720,
      "enhancement": 6721,
      "enhancements": 6722,
      "##hole": 6723,
      "##hood": 6724,
      "georanker": 6725,
      "designing": 6726,
      "Reasons": 6727,
      "Recipients": 6728,
      "board": 6729,
      "boohoo": 6730,
      "firew": 6731,
      "granting": 6732,
      "seller": 6733,
      "selling": 6734,
      "sellers": 6735,
      "combat": 6736,
      "combining": 6737,
      "combination": 6738,
      "Show": 6739,
      "Shared": 6740,
      "facsim": 6741,
      "usernames": 6742,
      "retargeting": 6743,
      "##idiaries": 6744,
      "shows": 6745,
      "priority": 6746,
      "encrypts": 6747,
      "2011": 6748,
      "Subscribe": 6749,
      "Support": 6750,
      "##FAâ": 6751,
      "confirming": 6752,
      "confirmations": 6753,
      "Alto": 6754,
      "Television": 6755,
      "bookings": 6756,
      "booklets": 6757,
      "deals": 6758,
      "dealer": 6759,
      "responsive": 6760,
      "11th": 6761,
      "built": 6762,
      "deciding": 6763,
      "decided": 6764,
      "guide": 6765,
      "seeks": 6766,
      "seeker": 6767,
      "seeking": 6768,
      "##ropnews": 6769,
      "##ashshield": 6770,
      "questionnair": 6771,
      "Usersâ": 6772,
      "integration": 6773,
      "integrated": 6774,
      "integrations": 6775,
      "Stamford": 6776,
      "clearest": 6777,
      "fair": 6778,
      "joomag": 6779,
      "navigating": 6780,
      "thinkgeek": 6781,
      "Except": 6782,
      "Exchange": 6783,
      "##lesw": 6784,
      "sensor": 6785,
      "depends": 6786,
      "adjusters": 6787,
      "amongst": 6788,
      "Applicable": 6789,
      "Applicants": 6790,
      "smoother": 6791,
      "term": 6792,
      "AppCho": 6793,
      "continuing": 6794,
      "brid": 6795,
      "bristol": 6796,
      "wrong": 6797,
      "parental": 6798,
      "confidentially": 6799,
      "Optics": 6800,
      "Optâout": 6801,
      "notifying": 6802,
      "childs": 6803,
      "checking": 6804,
      "Requests": 6805,
      "finding": 6806,
      "competitions": 6807,
      "stamps": 6808,
      "diet": 6809,
      "nationality": 6810,
      "utility": 6811,
      "recommended": 6812,
      "validation": 6813,
      "guarantees": 6814,
      "Chrom": 6815,
      "Chief": 6816,
      "Chicag": 6817,
      "authenticating": 6818,
      "factors": 6819,
      "idropnews": 6820,
      "producing": 6821,
      "##iginating": 6822,
      "supplied": 6823,
      "##agnosing": 6824,
      "careful": 6825,
      "Contests": 6826,
      "Airbnbâs": 6827,
      "Clubs": 6828,
      "Legitimate": 6829,
      "editing": 6830,
      "getpatch": 6831,
      "reorganized": 6832,
      "commitment": 6833,
      "AddTh": 6834,
      "violates": 6835,
      "##ruption": 6836,
      "youâll": 6837,
      "originating": 6838,
      "coverages": 6839,
      "Industry": 6840,
      "Steamworks": 6841,
      "Ens": 6842,
      "Engage": 6843,
      "Outside": 6844,
      "Wix": 6845,
      "backup": 6846,
      "supplemented": 6847,
      "publisher": 6848,
      "publishes": 6849,
      "published": 6850,
      "blogbing": 6851,
      "supplier": 6852,
      "tablets": 6853,
      "177": 6854,
      "Notifications": 6855,
      "Notwith": 6856,
      "Regard": 6857,
      "Sweepstakes": 6858,
      "Targeted": 6859,
      "Targetâs": 6860,
      "calero": 6861,
      "tests": 6862,
      "representing": 6863,
      "assignment": 6864,
      "configured": 6865,
      "deactivation": 6866,
      "Alliance": 6867,
      "Allrecipes": 6868,
      "SparkNotes": 6869,
      "justified": 6870,
      "moderators": 6871,
      "closely": 6872,
      "matching": 6873,
      "Automated": 6874,
      "advised": 6875,
      "possibly": 6876,
      "remained": 6877,
      "escal": 6878,
      "esrb": 6879,
      "fedex": 6880,
      "medical": 6881,
      "medications": 6882,
      "redact": 6883,
      "redbub": 6884,
      "reduction": 6885,
      "url": 6886,
      "urcontrol": 6887,
      "Brook": 6888,
      "Broad": 6889,
      "Administrative": 6890,
      "Administrators": 6891,
      "Accessing": 6892,
      "Transfer": 6893,
      "Transfers": 6894,
      "warranty": 6895,
      "uploading": 6896,
      "5375": 6897,
      "venture": 6898,
      "##TING": 6899,
      "canadian": 6900,
      "documents": 6901,
      "friendsâ": 6902,
      "Multiplyâs": 6903,
      "Finance": 6904,
      "centre": 6905,
      "central": 6906,
      "drivers": 6907,
      "scho": 6908,
      "schlesw": 6909,
      "##privacyrights": 6910,
      "immigration": 6911,
      "Property": 6912,
      "Conducting": 6913,
      "LLCâs": 6914,
      "Healthline": 6915,
      "Originating": 6916,
      "Objects": 6917,
      "worried": 6918,
      "costs": 6919,
      "exchanging": 6920,
      "strength": 6921,
      "contextual": 6922,
      "enquiry": 6923,
      "sega": 6924,
      "dispose": 6925,
      "disposal": 6926,
      "building": 6927,
      "Americanâs": 6928,
      "recruitment": 6929,
      "Feedback": 6930,
      "Feature": 6931,
      "Public": 6932,
      "Searches": 6933,
      "coupa": 6934,
      "hola": 6935,
      "holder": 6936,
      "##estsâ": 6937,
      "Interaction": 6938,
      "undertake": 6939,
      "undertaken": 6940,
      "installation": 6941,
      "capital": 6942,
      "capacity": 6943,
      "Browsing": 6944,
      "incompatible": 6945,
      "Performing": 6946,
      "Guestsâ": 6947,
      "bodies": 6948,
      "bodily": 6949,
      "derive": 6950,
      "derog": 6951,
      "marcom": 6952,
      "route": 6953,
      "winners": 6954,
      "winner": 6955,
      "##persky": 6956,
      "oriented": 6957,
      "became": 6958,
      "cancel": 6959,
      "privacypolicy": 6960,
      "premises": 6961,
      "##subscribeâ": 6962,
      "subsequently": 6963,
      "reflects": 6964,
      "Developing": 6965,
      "Developers": 6966,
      "initiated": 6967,
      "initiating": 6968,
      "everydayhealth": 6969,
      "dealerships": 6970,
      "Israeli": 6971,
      "06901": 6972,
      "45227": 6973,
      "Asset": 6974,
      "COOKIES": 6975,
      "Choices": 6976,
      "Corporate": 6977,
      "Federal": 6978,
      "MyAuto": 6979,
      "Visitor": 6980,
      "life": 6981,
      "serious": 6982,
      "##casionally": 6983,
      "subscribed": 6984,
      "execution": 6985,
      "executed": 6986,
      "executive": 6987,
      "referrals": 6988,
      "UniMas": 6989,
      "captured": 6990,
      "scanned": 6991,
      "Neweggâs": 6992,
      "diagnosed": 6993,
      "calculation": 6994,
      "environments": 6995,
      "3620": 6996,
      "AutoCheck": 6997,
      "DATA": 6998,
      "Delivery": 6999,
      "EC3R": 7000,
      "Verifying": 7001,
      "YOU": 7002,
      "drawback": 7003,
      "failures": 7004,
      "lsos": 7005,
      "marking": 7006,
      "marked": 7007,
      "sessional": 7008,
      "trials": 7009,
      "cooperate": 7010,
      "convenience": 7011,
      "convenient": 7012,
      "contributions": 7013,
      "contribute": 7014,
      "transportation": 7015,
      "cheat": 7016,
      "aggregating": 7017,
      "aggregators": 7018,
      "approximation": 7019,
      "remedies": 7020,
      "oppose": 7021,
      "increase": 7022,
      "##pshire": 7023,
      "10010": 7024,
      "geographical": 7025,
      "Submit": 7026,
      "charges": 7027,
      "smartphone": 7028,
      "ResearchKit": 7029,
      "275": 7030,
      "90210": 7031,
      "972": 7032,
      "97080": 7033,
      "Audience": 7034,
      "CIAmedia": 7035,
      "CTA": 7036,
      "LiveCode": 7037,
      "Noveltyâs": 7038,
      "Password": 7039,
      "Screen": 7040,
      "Signing": 7041,
      "balance": 7042,
      "balances": 7043,
      "damage": 7044,
      "genre": 7045,
      "genetic": 7046,
      "luxem": 7047,
      "observe": 7048,
      "paths": 7049,
      "âOpt": 7050,
      "repet": 7051,
      "reputable": 7052,
      "superior": 7053,
      "##choices": 7054,
      "Investig": 7055,
      "##ourguide": 7056,
      "positioning": 7057,
      "Connect": 7058,
      "Connection": 7059,
      "bluehole": 7060,
      "incorporated": 7061,
      "occasionally": 7062,
      "Subsidiaries": 7063,
      "values": 7064,
      "valuable": 7065,
      "continuously": 7066,
      "Withdrawing": 7067,
      "Preventing": 7068,
      "HTTP": 7069,
      "HTTPS": 7070,
      "political": 7071,
      "politico": 7072,
      "strategies": 7073,
      "Disclosure": 7074,
      "Disclosures": 7075,
      "Measurement": 7076,
      "Membership": 7077,
      "074": 7078,
      "Aviv": 7079,
      "Authorized": 7080,
      "Canada": 7081,
      "Country": 7082,
      "Client": 7083,
      "CONTAC": 7084,
      "Diagnosing": 7085,
      "DMV": 7086,
      "Double": 7087,
      "Edmund": 7088,
      "Entity": 7089,
      "Everyday": 7090,
      "Friends": 7091,
      "Jobs": 7092,
      "Occasionally": 7093,
      "Palo": 7094,
      "Postal": 7095,
      "Servers": 7096,
      "Safelite": 7097,
      "Video": 7098,
      "Walmart": 7099,
      "counsel": 7100,
      "duplicates": 7101,
      "dialing": 7102,
      "fitbit": 7103,
      "greater": 7104,
      "ratings": 7105,
      "robotic": 7106,
      "ranking": 7107,
      "syn": 7108,
      "songkick": 7109,
      "sports": 7110,
      "springer": 7111,
      "voting": 7112,
      "xiii": 7113,
      "âIDFAâ": 7114,
      "##nati": 7115,
      "##worth": 7116,
      "thirteen": 7117,
      "excluding": 7118,
      "consultation": 7119,
      "religion": 7120,
      "numerous": 7121,
      "impossible": 7122,
      "impressions": 7123,
      "quotation": 7124,
      "assuming": 7125,
      "simplify": 7126,
      "nonaffiliates": 7127,
      "Computer": 7128,
      "refunds": 7129,
      "finalize": 7130,
      "10011": 7131,
      "designsponge": 7132,
      "mistakes": 7133,
      "Experian": 7134,
      "timestamp": 7135,
      "Checkr": 7136,
      "Atlanta": 7137,
      "justifiable": 7138,
      "mindbodyonline": 7139,
      "schemes": 7140,
      "Purchases": 7141,
      "negoti": 7142,
      "html5": 7143,
      "repeatedly": 7144,
      "Electronic": 7145,
      "NBCUniversal": 7146,
      "gsmarena": 7147,
      "pseudonym": 7148,
      "algorithms": 7149,
      "407": 7150,
      "511tactical": 7151,
      "69710": 7152,
      "679": 7153,
      "8nu": 7154,
      "Avenue": 7155,
      "AAdvantage": 7156,
      "Article": 7157,
      "Brands": 7158,
      "Besides": 7159,
      "Belisha": 7160,
      "CMG": 7161,
      "CDNs": 7162,
      "Crafts": 7163,
      "Cerner": 7164,
      "Categories": 7165,
      "Campaigns": 7166,
      "Desktop": 7167,
      "Digg": 7168,
      "Dublin": 7169,
      "Estimate": 7170,
      "Extra": 7171,
      "GameFly": 7172,
      "HOW": 7173,
      "Hampshire": 7174,
      "Habarzel": 7175,
      "Hearst": 7176,
      "IBM": 7177,
      "Lirit": 7178,
      "Merch": 7179,
      "MarineTra": 7180,
      "Messenger": 7181,
      "Magazines": 7182,
      "Modifying": 7183,
      "NPPI": 7184,
      "ORG": 7185,
      "Privatix": 7186,
      "Pixel": 7187,
      "Promotional": 7188,
      "Retargeting": 7189,
      "Siri": 7190,
      "Saved": 7191,
      "Specific": 7192,
      "Total": 7193,
      "Violations": 7194,
      "Volunt": 7195,
      "Vimeo": 7196,
      "Vegas": 7197,
      "VRSumo": 7198,
      "Write": 7199,
      "Wedding": 7200,
      "Washington": 7201,
      "average": 7202,
      "battery": 7203,
      "baggage": 7204,
      "bauer": 7205,
      "cincin": 7206,
      "cache": 7207,
      "dsar": 7208,
      "evga": 7209,
      "eBay": 7210,
      "ethnic": 7211,
      "fiscal": 7212,
      "filtering": 7213,
      "filings": 7214,
      "fingerprint": 7215,
      "getyourguide": 7216,
      "harassment": 7217,
      "hudl": 7218,
      "iceland": 7219,
      "jonathan": 7220,
      "journal": 7221,
      "kiw": 7222,
      "kaspersky": 7223,
      "kronos": 7224,
      "large": 7225,
      "lieu": 7226,
      "mortgage": 7227,
      "naturally": 7228,
      "pinpoint": 7229,
      "pronunci": 7230,
      "racial": 7231,
      "rivs": 7232,
      "sixt": 7233,
      "servicers": 7234,
      "solicit": 7235,
      "tufts": 7236,
      "trovit": 7237,
      "uphold": 7238,
      "virus": 7239,
      "vulnerabilities": 7240,
      "vivino": 7241,
      "wc2h": 7242,
      "xpressbet": 7243,
      "yellow": 7244,
      "yossi": 7245,
      "zealand": 7246,
      "zlotnick": 7247,
      "zamzar": 7248,
      "âUsage": 7249,
      "âunsubscribeâ": 7250,
      "âInformation": 7251,
      "##ovenstraße": 7252,
      "##xstar": 7253,
      "##cupation": 7254,
      "##ville": 7255,
      "##9614": 7256,
      "##erometer": 7257,
      "thelevelup": 7258,
      "andadvertisers": 7259,
      "prosecution": 7260,
      "orbrowsers": 7261,
      "yourcaliforniaprivacyrights": 7262,
      "remote": 7263,
      "constit": 7264,
      "conclusion": 7265,
      "forgotten": 7266,
      "##idelines": 7267,
      "becomes": 7268,
      "beethovenstraße": 7269,
      "whatever": 7270,
      "onelogin": 7271,
      "accelerometer": 7272,
      "aboutads": 7273,
      "iskysoft": 7274,
      "startapp": 7275,
      "streema": 7276,
      "transparent": 7277,
      "comprehensive": 7278,
      "YouTube": 7279,
      "laundering": 7280,
      "chucklefish": 7281,
      "disproportionate": 7282,
      "cortexmg": 7283,
      "affirmative": 7284,
      "appointed": 7285,
      "argentine": 7286,
      "intelligence": 7287,
      "subreddits": 7288,
      "storefront": 7289,
      "Conditions": 7290,
      "trademark": 7291,
      "Goodreads": 7292,
      "Statistically": 7293,
      "inconvenience": 7294,
      "Plugin": 7295,
      "principle": 7296,
      "Definition": 7297,
      "facsimile": 7298,
      "questionnaires": 7299,
      "AppChoices": 7300,
      "Chicago": 7301,
      "AddThis": 7302,
      "Engagement": 7303,
      "Notwithstanding": 7304,
      "escalate": 7305,
      "redbubble": 7306,
      "MyAutoTrader": 7307,
      "36209614": 7308,
      "luxembourg": 7309,
      "CONTACT": 7310,
      "AAdvantageÂ®": 7311,
      "MarineTraffic": 7312,
      "cincinnati": 7313,
      "journalism": 7314,
      "pronunciation": 7315,
      "0g": 7316,
      "08": 7317,
      "05": 7318,
      "01": 7319,
      "03": 7320,
      "1k": 7321,
      "2nd": 7322,
      "211": 7323,
      "265": 7324,
      "39": 7325,
      "38": 7326,
      "3A": 7327,
      "35": 7328,
      "4v": 7329,
      "46": 7330,
      "48": 7331,
      "41": 7332,
      "4th": 7333,
      "411": 7334,
      "410": 7335,
      "4sh": 7336,
      "4NA": 7337,
      "430": 7338,
      "52": 7339,
      "50": 7340,
      "57": 7341,
      "520": 7342,
      "528": 7343,
      "66": 7344,
      "62": 7345,
      "68": 7346,
      "61": 7347,
      "6th": 7348,
      "600": 7349,
      "651": 7350,
      "7w": 7351,
      "79": 7352,
      "74": 7353,
      "72": 7354,
      "70": 7355,
      "727": 7356,
      "8a": 7357,
      "85": 7358,
      "8H": 7359,
      "801": 7360,
      "840": 7361,
      "820": 7362,
      "828": 7363,
      "831": 7364,
      "9n": 7365,
      "9x": 7366,
      "9g": 7367,
      "9G": 7368,
      "9th": 7369,
      "900": 7370,
      "940": 7371,
      "Ar": 7372,
      "AM": 7373,
      "AA": 7374,
      "AD": 7375,
      "Ant": 7376,
      "Agre": 7377,
      "Aside": 7378,
      "Affili": 7379,
      "Aug": 7380,
      "AAI": 7381,
      "ANA": 7382,
      "BS": 7383,
      "B2": 7384,
      "BU": 7385,
      "BY": 7386,
      "Bou": 7387,
      "Bar": 7388,
      "Bent": 7389,
      "Bas": 7390,
      "But": 7391,
      "Bet": 7392,
      "Bever": 7393,
      "Bank": 7394,
      "Bran": 7395,
      "BES": 7396,
      "Braz": 7397,
      "Baid": 7398,
      "Ca": 7399,
      "Co": 7400,
      "CS": 7401,
      "CV": 7402,
      "Cart": 7403,
      "Cable": 7404,
      "Card": 7405,
      "Cop": 7406,
      "Caf": 7407,
      "Coun": 7408,
      "Capt": 7409,
      "Cashshield": 7410,
      "Dr": 7411,
      "DS": 7412,
      "Dw": 7413,
      "DD": 7414,
      "Dent": 7415,
      "Dif": 7416,
      "Del": 7417,
      "Day": 7418,
      "Drive": 7419,
      "Directly": 7420,
      "Es": 7421,
      "El": 7422,
      "Ep": 7423,
      "Ez": 7424,
      "EN": 7425,
      "EL": 7426,
      "Esta": 7427,
      "Evern": 7428,
      "Establish": 7429,
      "Evalu": 7430,
      "Egg": 7431,
      "Erase": 7432,
      "Fa": 7433,
      "Fl": 7434,
      "FT": 7435,
      "FO": 7436,
      "FC": 7437,
      "FR": 7438,
      "FL": 7439,
      "Fen": 7440,
      "Far": 7441,
      "Fac": 7442,
      "Fra": 7443,
      "Fail": 7444,
      "Flow": 7445,
      "File": 7446,
      "Find": 7447,
      "France": 7448,
      "Function": 7449,
      "Fair": 7450,
      "Fandango": 7451,
      "Gal": 7452,
      "Gas": 7453,
      "Gra": 7454,
      "Gam": 7455,
      "Games": 7456,
      "Gaw": 7457,
      "Green": 7458,
      "Gaming": 7459,
      "Hi": 7460,
      "HM": 7461,
      "HH": 7462,
      "Har": 7463,
      "Hos": 7464,
      "Hart": 7465,
      "Hard": 7466,
      "Home": 7467,
      "House": 7468,
      "Hub": 7469,
      "Ir": 7470,
      "IM": 7471,
      "Ill": 7472,
      "IEC": 7473,
      "IRS": 7474,
      "Ja": 7475,
      "Jose": 7476,
      "Joint": 7477,
      "Ka": 7478,
      "Kings": 7479,
      "LS": 7480,
      "Lion": 7481,
      "Lit": 7482,
      "Lic": 7483,
      "Lif": 7484,
      "Lia": 7485,
      "Lod": 7486,
      "Last": 7487,
      "Language": 7488,
      "Later": 7489,
      "Mon": 7490,
      "Mid": 7491,
      "Macy": 7492,
      "Mail": 7493,
      "May": 7494,
      "Map": 7495,
      "Mont": 7496,
      "Moun": 7497,
      "MNG": 7498,
      "Males": 7499,
      "Ni": 7500,
      "NJ": 7501,
      "N1": 7502,
      "NW": 7503,
      "Nin": 7504,
      "Nation": 7505,
      "Never": 7506,
      "None": 7507,
      "Nether": 7508,
      "Navig": 7509,
      "OF": 7510,
      "Ow": 7511,
      "OB": 7512,
      "Obs": 7513,
      "Off": 7514,
      "Obtain": 7515,
      "Oblig": 7516,
      "Offic": 7517,
      "Pe": 7518,
      "PA": 7519,
      "PC": 7520,
      "Por": 7521,
      "Pri": 7522,
      "Park": 7523,
      "Pick": 7524,
      "Post": 7525,
      "Pub": 7526,
      "Port": 7527,
      "Pope": 7528,
      "Patch": 7529,
      "PUR": 7530,
      "Phot": 7531,
      "Promotions": 7532,
      "PERS": 7533,
      "Red": 7534,
      "Rest": 7535,
      "Rog": 7536,
      "Rap": 7537,
      "Raz": 7538,
      "Risk": 7539,
      "REC": 7540,
      "Rockefeller": 7541,
      "River": 7542,
      "SI": 7543,
      "SA": 7544,
      "SE": 7545,
      "SB": 7546,
      "Sent": 7547,
      "Sch": 7548,
      "Sir": 7549,
      "Say": 7550,
      "Sport": 7551,
      "Size": 7552,
      "Soc": 7553,
      "Sav": 7554,
      "SRL": 7555,
      "Single": 7556,
      "Source": 7557,
      "TP": 7558,
      "TC": 7559,
      "TR": 7560,
      "TL": 7561,
      "Tit": 7562,
      "Table": 7563,
      "Tell": 7564,
      "Tailor": 7565,
      "Trib": 7566,
      "Tales": 7567,
      "UC": 7568,
      "Uta": 7569,
      "Uplo": 7570,
      "Until": 7571,
      "UID": 7572,
      "UAI": 7573,
      "Urb": 7574,
      "Ve": 7575,
      "VI": 7576,
      "VO": 7577,
      "Via": 7578,
      "Vari": 7579,
      "Vox": 7580,
      "Venue": 7581,
      "Visible": 7582,
      "W1": 7583,
      "WP": 7584,
      "WC": 7585,
      "WH": 7586,
      "Wat": 7587,
      "Was": 7588,
      "Wish": 7589,
      "Word": 7590,
      "Work": 7591,
      "Wave": 7592,
      "Yand": 7593,
      "Zip": 7594,
      "aa": 7595,
      "aÂ": 7596,
      "ave": 7597,
      "avi": 7598,
      "aug": 7599,
      "away": 7600,
      "bs": 7601,
      "bi": 7602,
      "bf": 7603,
      "bc": 7604,
      "bing": 7605,
      "bur": 7606,
      "ble": 7607,
      "bot": 7608,
      "bge": 7609,
      "bount": 7610,
      "biz": 7611,
      "brough": 7612,
      "bols": 7613,
      "bio": 7614,
      "bower": 7615,
      "cs": 7616,
      "cy": 7617,
      "cel": 7618,
      "civ": 7619,
      "cab": 7620,
      "cens": 7621,
      "citizen": 7622,
      "camp": 7623,
      "cashshield": 7624,
      "dl": 7625,
      "dil": 7626,
      "dim": 7627,
      "dite": 7628,
      "divid": 7629,
      "done": 7630,
      "drib": 7631,
      "duch": 7632,
      "dashboard": 7633,
      "draws": 7634,
      "ef": 7635,
      "ew": 7636,
      "eT": 7637,
      "ear": 7638,
      "eta": 7639,
      "eag": 7640,
      "earn": 7641,
      "eprivacy": 7642,
      "ebur": 7643,
      "fly": 7644,
      "flow": 7645,
      "fine": 7646,
      "furn": 7647,
      "ftc": 7648,
      "fang": 7649,
      "foss": 7650,
      "fanta": 7651,
      "floor": 7652,
      "fran": 7653,
      "flex": 7654,
      "ga": 7655,
      "gy": 7656,
      "gil": 7657,
      "gill": 7658,
      "gad": 7659,
      "gone": 7660,
      "gets": 7661,
      "gave": 7662,
      "gater": 7663,
      "giver": 7664,
      "hl": 7665,
      "hc": 7666,
      "hy": 7667,
      "hon": 7668,
      "hom": 7669,
      "hide": 7670,
      "hoc": 7671,
      "hea": 7672,
      "hired": 7673,
      "hire": 7674,
      "hoot": 7675,
      "hiring": 7676,
      "hills": 7677,
      "ix": 7678,
      "ig": 7679,
      "iM": 7680,
      "iP": 7681,
      "iR": 7682,
      "ide": 7683,
      "ids": 7684,
      "iPad": 7685,
      "jp": 7686,
      "jan": 7687,
      "jsp": 7688,
      "ker": 7689,
      "kid": 7690,
      "kom": 7691,
      "kay": 7692,
      "kore": 7693,
      "kcom": 7694,
      "kingu": 7695,
      "kbb": 7696,
      "ly": 7697,
      "lk": 7698,
      "l6": 7699,
      "ling": 7700,
      "less": 7701,
      "low": 7702,
      "lund": 7703,
      "living": 7704,
      "ms": 7705,
      "mi": 7706,
      "ml": 7707,
      "mn": 7708,
      "mc": 7709,
      "men": 7710,
      "mid": 7711,
      "mot": 7712,
      "mart": 7713,
      "mere": 7714,
      "mus": 7715,
      "mother": 7716,
      "math": 7717,
      "micro": 7718,
      "mix": 7719,
      "mkt": 7720,
      "mhed": 7721,
      "n1": 7722,
      "nas": 7723,
      "nol": 7724,
      "nile": 7725,
      "none": 7726,
      "nink": 7727,
      "native": 7728,
      "null": 7729,
      "oh": 7730,
      "ood": 7731,
      "ohi": 7732,
      "oak": 7733,
      "orother": 7734,
      "pd": 7735,
      "pÃ": 7736,
      "pen": 7737,
      "pan": 7738,
      "pam": 7739,
      "pel": 7740,
      "pain": 7741,
      "park": 7742,
      "prou": 7743,
      "pod": 7744,
      "pav": 7745,
      "psy": 7746,
      "pager": 7747,
      "ros": 7748,
      "rad": 7749,
      "ride": 7750,
      "rise": 7751,
      "rue": 7752,
      "render": 7753,
      "rough": 7754,
      "russ": 7755,
      "round": 7756,
      "sl": 7757,
      "sq": 7758,
      "spl": 7759,
      "slow": 7760,
      "scri": 7761,
      "scrib": 7762,
      "sister": 7763,
      "sates": 7764,
      "sms": 7765,
      "sonym": 7766,
      "serial": 7767,
      "six": 7768,
      "samples": 7769,
      "solution": 7770,
      "sides": 7771,
      "tv": 7772,
      "tin": 7773,
      "tal": 7774,
      "tam": 7775,
      "tag": 7776,
      "tie": 7777,
      "tip": 7778,
      "tour": 7779,
      "tick": 7780,
      "ux": 7781,
      "va": 7782,
      "vo": 7783,
      "vm": 7784,
      "v8": 7785,
      "vet": 7786,
      "vice": 7787,
      "vast": 7788,
      "vict": 7789,
      "vouch": 7790,
      "wi": 7791,
      "wan": 7792,
      "wow": 7793,
      "wso": 7794,
      "wage": 7795,
      "ware": 7796,
      "wood": 7797,
      "wals": 7798,
      "wilton": 7799,
      "waters": 7800,
      "xi": 7801,
      "y8": 7802,
      "yot": 7803,
      "yates": 7804,
      "zS": 7805,
      "zG": 7806,
      "zend": 7807,
      "zug": 7808,
      "½s": 7809,
      "½M": 7810,
      "½R": 7811,
      "âs": 7812,
      "âa": 7813,
      "ân": 7814,
      "âm": 7815,
      "âF": 7816,
      "âI": 7817,
      "âÂ": 7818,
      "âN": 7819,
      "âT": 7820,
      "âY": 7821,
      "âW": 7822,
      "â7": 7823,
      "â¯": 7824,
      "âad": 7825,
      "âli": 7826,
      "âPI": 7827,
      "âTh": 7828,
      "##ees": 7829,
      "##eing": 7830,
      "##ews": 7831,
      "##eem": 7832,
      "##elevant": 7833,
      "##ses": 7834,
      "##sle": 7835,
      "##stain": 7836,
      "##scl": 7837,
      "##sions": 7838,
      "##search": 7839,
      "##sco": 7840,
      "##sday": 7841,
      "##sibility": 7842,
      "##iq": 7843,
      "##iH": 7844,
      "##ias": 7845,
      "##ius": 7846,
      "##iates": 7847,
      "##ictions": 7848,
      "##ikey": 7849,
      "##ictionary": 7850,
      "##dd": 7851,
      "##dh": 7852,
      "##din": 7853,
      "##dig": 7854,
      "##dol": 7855,
      "##dog": 7856,
      "##doc": 7857,
      "##doing": 7858,
      "##dens": 7859,
      "##daily": 7860,
      "##ues": 7861,
      "##uar": 7862,
      "##uil": 7863,
      "##uff": 7864,
      "##uary": 7865,
      "##uous": 7866,
      "##ucation": 7867,
      "##uits": 7868,
      "##aware": 7869,
      "##apy": 7870,
      "##aking": 7871,
      "##avision": 7872,
      "##lans": 7873,
      "##lus": 7874,
      "##lack": 7875,
      "##lia": 7876,
      "##lick": 7877,
      "##lights": 7878,
      "##nn": 7879,
      "##ng": 7880,
      "##nor": 7881,
      "##nan": 7882,
      "##nect": 7883,
      "##night": 7884,
      "##net": 7885,
      "##naly": 7886,
      "##nline": 7887,
      "##nium": 7888,
      "##ts": 7889,
      "##tp": 7890,
      "##tor": 7891,
      "##tro": 7892,
      "##tar": 7893,
      "##tra": 7894,
      "##tun": 7895,
      "##timate": 7896,
      "##tled": 7897,
      "##tru": 7898,
      "##hat": 7899,
      "##hen": 7900,
      "##how": 7901,
      "##here": 7902,
      "##holic": 7903,
      "##hone": 7904,
      "##hicle": 7905,
      "##hock": 7906,
      "##hav": 7907,
      "##haw": 7908,
      "##house": 7909,
      "##haps": 7910,
      "##history": 7911,
      "##hington": 7912,
      "##oS": 7913,
      "##ov": 7914,
      "##ole": 7915,
      "##ocial": 7916,
      "##oogle": 7917,
      "##ror": 7918,
      "##ric": 7919,
      "##rist": 7920,
      "##rich": 7921,
      "##rary": 7922,
      "##rise": 7923,
      "##rateg": 7924,
      "##resent": 7925,
      "##risk": 7926,
      "##fo": 7927,
      "##fic": 7928,
      "##fil": 7929,
      "##fly": 7930,
      "##fol": 7931,
      "##fra": 7932,
      "##fus": 7933,
      "##free": 7934,
      "##files": 7935,
      "##flor": 7936,
      "##flights": 7937,
      "##gw": 7938,
      "##ged": 7939,
      "##gom": 7940,
      "##gment": 7941,
      "##gland": 7942,
      "##gistered": 7943,
      "##mat": 7944,
      "##mes": 7945,
      "##mal": 7946,
      "##mers": 7947,
      "##mble": 7948,
      "##mus": 7949,
      "##most": 7950,
      "##mps": 7951,
      "##meo": 7952,
      "##mont": 7953,
      "##much": 7954,
      "##mium": 7955,
      "##making": 7956,
      "##cc": 7957,
      "##cer": 7958,
      "##cil": 7959,
      "##cid": 7960,
      "##cies": 7961,
      "##case": 7962,
      "##come": 7963,
      "##cide": 7964,
      "##cili": 7965,
      "##crypt": 7966,
      "##code": 7967,
      "##contact": 7968,
      "##camp": 7969,
      "##pc": 7970,
      "##pit": 7971,
      "##pal": 7972,
      "##ped": 7973,
      "##pot": 7974,
      "##part": 7975,
      "##pac": 7976,
      "##pervis": 7977,
      "##pection": 7978,
      "##pare": 7979,
      "##pass": 7980,
      "##pps": 7981,
      "##pens": 7982,
      "##payer": 7983,
      "##power": 7984,
      "##pflights": 7985,
      "##be": 7986,
      "##b3": 7987,
      "##bes": 7988,
      "##bor": 7989,
      "##bar": 7990,
      "##bble": 7991,
      "##bum": 7992,
      "##bine": 7993,
      "##bag": 7994,
      "##band": 7995,
      "##bour": 7996,
      "##bab": 7997,
      "##bott": 7998,
      "##bug": 7999,
      "##bund": 8000,
      "##borate": 8001,
      "##yes": 8002,
      "##your": 8003,
      "##yright": 8004,
      "##FV": 8005,
      "##For": 8006,
      "##ks": 8007,
      "##keep": 8008,
      "##kens": 8009,
      "##keli": 8010,
      "##kiH": 8011,
      "##Me": 8012,
      "##Med": 8013,
      "##SEN": 8014,
      "##Star": 8015,
      "##Spot": 8016,
      "##âP": 8017,
      "##âfor": 8018,
      "##âll": 8019,
      "##âread": 8020,
      "##âtime": 8021,
      "##âto": 8022,
      "##âFi": 8023,
      "##âwith": 8024,
      "##âpart": 8025,
      "##wers": 8026,
      "##wid": 8027,
      "##wif": 8028,
      "##want": 8029,
      "##writ": 8030,
      "##wood": 8031,
      "##watch": 8032,
      "##IS": 8033,
      "##Iâ": 8034,
      "##IO": 8035,
      "##IEN": 8036,
      "##ITI": 8037,
      "##ING": 8038,
      "##vD": 8039,
      "##vin": 8040,
      "##vity": 8041,
      "##vings": 8042,
      "##vince": 8043,
      "##Gov": 8044,
      "##68": 8045,
      "##60": 8046,
      "##92": 8047,
      "##95": 8048,
      "##49": 8049,
      "##44": 8050,
      "##41": 8051,
      "##428": 8052,
      "##26": 8053,
      "##25": 8054,
      "##8A": 8055,
      "##851": 8056,
      "##Time": 8057,
      "##TES": 8058,
      "##05": 8059,
      "##036": 8060,
      "##As": 8061,
      "##AL": 8062,
      "##Aâs": 8063,
      "##58A": 8064,
      "##jur": 8065,
      "##Os": 8066,
      "##OM": 8067,
      "##Job": 8068,
      "##1R": 8069,
      "##13": 8070,
      "##Pro": 8071,
      "##Pâs": 8072,
      "##Pass": 8073,
      "##POS": 8074,
      "##Point": 8075,
      "##Plans": 8076,
      "##Up": 8077,
      "##CA": 8078,
      "##Con": 8079,
      "##CES": 8080,
      "##Click": 8081,
      "##EI": 8082,
      "##ER": 8083,
      "##EV": 8084,
      "##Bout": 8085,
      "##Back": 8086,
      "##Buil": 8087,
      "##Black": 8088,
      "##RT": 8089,
      "##RA": 8090,
      "##RC": 8091,
      "##RR": 8092,
      "##32": 8093,
      "##301": 8094,
      "##335": 8095,
      "##361": 8096,
      "##LITI": 8097,
      "##Vault": 8098,
      "##VER": 8099,
      "##WAs": 8100,
      "##Ã©": 8101,
      "##Í¾": 8102,
      "##erce": 8103,
      "##erary": 8104,
      "##erâs": 8105,
      "##erbar": 8106,
      "##erBout": 8107,
      "##oning": 8108,
      "##onents": 8109,
      "##onville": 8110,
      "##onnect": 8111,
      "##oncili": 8112,
      "##atar": 8113,
      "##atow": 8114,
      "##atical": 8115,
      "##atisf": 8116,
      "##esk": 8117,
      "##esal": 8118,
      "##oul": 8119,
      "thor": 8120,
      "thro": 8121,
      "thing": 8122,
      "thest": 8123,
      "thoms": 8124,
      "thru": 8125,
      "threadless": 8126,
      "##orer": 8127,
      "##oric": 8128,
      "##orth": 8129,
      "##oria": 8130,
      "##orators": 8131,
      "##orne": 8132,
      "young": 8133,
      "##ina": 8134,
      "##inct": 8135,
      "##inate": 8136,
      "##inst": 8137,
      "##inical": 8138,
      "##inations": 8139,
      "##inous": 8140,
      "##infin": 8141,
      "##inbur": 8142,
      "##inars": 8143,
      "##inerary": 8144,
      "toc": 8145,
      "toÂ": 8146,
      "toen": 8147,
      "towards": 8148,
      "tocertain": 8149,
      "tomt": 8150,
      "todd": 8151,
      "tokens": 8152,
      "towers": 8153,
      "##ionen": 8154,
      "theory": 8155,
      "thems": 8156,
      "thewe": 8157,
      "theaters": 8158,
      "thevin": 8159,
      "ing": 8160,
      "inâ": 8161,
      "inÂ": 8162,
      "inta": 8163,
      "inside": 8164,
      "inhibit": 8165,
      "incurring": 8166,
      "ingl": 8167,
      "injur": 8168,
      "##itating": 8169,
      "##itles": 8170,
      "##itively": 8171,
      "##itarta": 8172,
      "##itoring": 8173,
      "anim": 8174,
      "##roy": 8175,
      "##road": 8176,
      "##rodu": 8177,
      "##rooms": 8178,
      "##rospect": 8179,
      "##rosco": 8180,
      "##roborate": 8181,
      "##ctors": 8182,
      "##ingern": 8183,
      "##icon": 8184,
      "##icut": 8185,
      "##icity": 8186,
      "##icide": 8187,
      "##ician": 8188,
      "##icious": 8189,
      "##ald": 8190,
      "##aling": 8191,
      "##alers": 8192,
      "##alties": 8193,
      "##alPlans": 8194,
      "##ationary": 8195,
      "##urg": 8196,
      "##urer": 8197,
      "##urant": 8198,
      "##urry": 8199,
      "##ursday": 8200,
      "ofÂ": 8201,
      "ofir": 8202,
      "##eness": 8203,
      "##enity": 8204,
      "##enea": 8205,
      "##enari": 8206,
      "##enews": 8207,
      "##ennium": 8208,
      "##forcing": 8209,
      "##fortun": 8210,
      "proportionate": 8211,
      "probab": 8212,
      "province": 8213,
      "##ison": 8214,
      "##isen": 8215,
      "##isers": 8216,
      "##isions": 8217,
      "##formatio": 8218,
      "##ley": 8219,
      "##lean": 8220,
      "##lement": 8221,
      "##lebr": 8222,
      "##league": 8223,
      "orfunctionality": 8224,
      "ordin": 8225,
      "yours": 8226,
      "yourâ": 8227,
      "youronline": 8228,
      "##arations": 8229,
      "##arequ": 8230,
      "##arification": 8231,
      "usual": 8232,
      "usnews": 8233,
      "reci": 8234,
      "rety": 8235,
      "reput": 8236,
      "really": 8237,
      "reply": 8238,
      "reward": 8239,
      "reuters": 8240,
      "replace": 8241,
      "republic": 8242,
      "informationÍ¾": 8243,
      "##anation": 8244,
      "##anch": 8245,
      "##anum": 8246,
      "##ancies": 8247,
      "##essment": 8248,
      "##essage": 8249,
      "maid": 8250,
      "maple": 8251,
      "mapp": 8252,
      "##ersonâs": 8253,
      "dataâ": 8254,
      "dataprivacy": 8255,
      "datains": 8256,
      "##ilos": 8257,
      "##ilver": 8258,
      "##ilst": 8259,
      "##ilions": 8260,
      "##ilad": 8261,
      "##ilitate": 8262,
      "##ilistic": 8263,
      "conclud": 8264,
      "convert": 8265,
      "concept": 8266,
      "condol": 8267,
      "weigh": 8268,
      "weâve": 8269,
      "week": 8270,
      "##tability": 8271,
      "ours": 8272,
      "personalise": 8273,
      "##ithere": 8274,
      "##igibility": 8275,
      "##cessive": 8276,
      "##cessible": 8277,
      "withÂ": 8278,
      "forever": 8279,
      "forcing": 8280,
      "##erving": 8281,
      "##erview": 8282,
      "maybe": 8283,
      "##ida": 8284,
      "##iders": 8285,
      "sustain": 8286,
      "suicide": 8287,
      "##asers": 8288,
      "##associ": 8289,
      "##asuring": 8290,
      "##ighol": 8291,
      "##ighbor": 8292,
      "##chat": 8293,
      "##chart": 8294,
      "##chise": 8295,
      "##check": 8296,
      "##chives": 8297,
      "##theless": 8298,
      "##tholder": 8299,
      "bear": 8300,
      "bever": 8301,
      "began": 8302,
      "comÂ": 8303,
      "comes": 8304,
      "comâs": 8305,
      "##ira": 8306,
      "##irep": 8307,
      "##irement": 8308,
      "##iruses": 8309,
      "whilst": 8310,
      "hack": 8311,
      "hamb": 8312,
      "onward": 8313,
      "onwards": 8314,
      "##osh": 8315,
      "##osia": 8316,
      "##terpr": 8317,
      "##terfly": 8318,
      "##rew": 8319,
      "##reach": 8320,
      "##reational": 8321,
      "##represent": 8322,
      "##referred": 8323,
      "##relevant": 8324,
      "##registered": 8325,
      "##ote": 8326,
      "##otland": 8327,
      "##otlight": 8328,
      "##lyn": 8329,
      "##lying": 8330,
      "##lywood": 8331,
      "depos": 8332,
      "deleg": 8333,
      "debu": 8334,
      "detro": 8335,
      "debug": 8336,
      "adam": 8337,
      "adress": 8338,
      "admit": 8339,
      "adchoices": 8340,
      "adhere": 8341,
      "##uts": 8342,
      "##uting": 8343,
      "##utation": 8344,
      "##utors": 8345,
      "##utterfly": 8346,
      "thatÂ": 8347,
      "##blebund": 8348,
      "##eting": 8349,
      "##etouch": 8350,
      "##etric": 8351,
      "WeÂ": 8352,
      "Well": 8353,
      "Weather": 8354,
      "Welcome": 8355,
      "Weâve": 8356,
      "Week": 8357,
      "Weâll": 8358,
      "##therapy": 8359,
      "##artments": 8360,
      "##olen": 8361,
      "##olidation": 8362,
      "##olesal": 8363,
      "acceptable": 8364,
      "notes": 8365,
      "##itynet": 8366,
      "##acing": 8367,
      "##aced": 8368,
      "##acceptable": 8369,
      "##lected": 8370,
      "partial": 8371,
      "anymore": 8372,
      "anybody": 8373,
      "##iment": 8374,
      "##imated": 8375,
      "##iminate": 8376,
      "Instances": 8377,
      "Informatio": 8378,
      "##cles": 8379,
      "##clusive": 8380,
      "alto": 8381,
      "alternatively": 8382,
      "alias": 8383,
      "altru": 8384,
      "album": 8385,
      "bypass": 8386,
      "abc": 8387,
      "abiding": 8388,
      "abnor": 8389,
      "abbott": 8390,
      "abroad": 8391,
      "collections": 8392,
      "iftt": 8393,
      "##rain": 8394,
      "##ravent": 8395,
      "##raping": 8396,
      "##raisers": 8397,
      "##plan": 8398,
      "##plications": 8399,
      "##plorer": 8400,
      "##ifies": 8401,
      "##stance": 8402,
      "##stations": 8403,
      "##struct": 8404,
      "isnt": 8405,
      "##illsh": 8406,
      "atlus": 8407,
      "true": 8408,
      "tracing": 8409,
      "exten": 8410,
      "exempt": 8411,
      "exclus": 8412,
      "excessive": 8413,
      "exclusive": 8414,
      "##oker": 8415,
      "##bster": 8416,
      "##bscriptions": 8417,
      "##pose": 8418,
      "consul": 8419,
      "consci": 8420,
      "consign": 8421,
      "consho": 8422,
      "conspic": 8423,
      "consulting": 8424,
      "console": 8425,
      "considers": 8426,
      "consolidation": 8427,
      "##mentor": 8428,
      "##mentation": 8429,
      "story": 8430,
      "stem": 8431,
      "stip": 8432,
      "stances": 8433,
      "steam": 8434,
      "style": 8435,
      "stuff": 8436,
      "stationary": 8437,
      "stolen": 8438,
      "##amer": 8439,
      "##amble": 8440,
      "##amedia": 8441,
      "##amless": 8442,
      "##ferral": 8443,
      "lobster": 8444,
      "neither": 8445,
      "nexstar": 8446,
      "neighbor": 8447,
      "itâs": 8448,
      "itinerary": 8449,
      "contrary": 8450,
      "contravent": 8451,
      "shore": 8452,
      "shoot": 8453,
      "unit": 8454,
      "unus": 8455,
      "unob": 8456,
      "unpa": 8457,
      "undu": 8458,
      "unco": 8459,
      "unex": 8460,
      "unne": 8461,
      "units": 8462,
      "uneth": 8463,
      "unrel": 8464,
      "uniq": 8465,
      "unwant": 8466,
      "uninst": 8467,
      "unfortun": 8468,
      "unregistered": 8469,
      "unacceptable": 8470,
      "lease": 8471,
      "league": 8472,
      "consenting": 8473,
      "purposesâ": 8474,
      "##ulated": 8475,
      "##ulators": 8476,
      "thirdâpart": 8477,
      "##sodig": 8478,
      "Personalize": 8479,
      "Personalization": 8480,
      "intercept": 8481,
      "interruption": 8482,
      "api": 8483,
      "apartment": 8484,
      "entail": 8485,
      "enough": 8486,
      "entails": 8487,
      "enlist": 8488,
      "enrich": 8489,
      "resource": 8490,
      "resuts": 8491,
      "##ptout": 8492,
      "##ptember": 8493,
      "transformation": 8494,
      "transact": 8495,
      "transient": 8496,
      "##pecial": 8497,
      "##pekt": 8498,
      "certainÂ": 8499,
      "##istog": 8500,
      "##istence": 8501,
      "##istry": 8502,
      "outgoing": 8503,
      "outwe": 8504,
      "outof": 8505,
      "outstanding": 8506,
      "outcome": 8507,
      "outreach": 8508,
      "##ountâ": 8509,
      "##une": 8510,
      "##unch": 8511,
      "##resser": 8512,
      "compact": 8513,
      "compens": 8514,
      "compared": 8515,
      "complex": 8516,
      "comprise": 8517,
      "components": 8518,
      "complement": 8519,
      "computing": 8520,
      "accesses": 8521,
      "accessibility": 8522,
      "##cision": 8523,
      "accred": 8524,
      "cookiesÂ": 8525,
      "timefra": 8526,
      "##uminous": 8527,
      "##eled": 8528,
      "##elph": 8529,
      "##elms": 8530,
      "##elves": 8531,
      "##elwor": 8532,
      "##letv": 8533,
      "##letion": 8534,
      "##letins": 8535,
      "visitÂ": 8536,
      "visitflor": 8537,
      "dog": 8538,
      "doctors": 8539,
      "##endum": 8540,
      "webserver": 8541,
      "howmuch": 8542,
      "launch": 8543,
      "##onger": 8544,
      "##ogue": 8545,
      "seat": 8546,
      "seoul": 8547,
      "seamless": 8548,
      "##ichen": 8549,
      "chain": 8550,
      "chea": 8551,
      "chasing": 8552,
      "chaser": 8553,
      "christ": 8554,
      "chelms": 8555,
      "##arketers": 8556,
      "##arden": 8557,
      "##iviruses": 8558,
      "makers": 8559,
      "##pered": 8560,
      "##perly": 8561,
      "##perlink": 8562,
      "fee": 8563,
      "feed": 8564,
      "marketers": 8565,
      "disci": 8566,
      "dispon": 8567,
      "dislike": 8568,
      "disabilities": 8569,
      "disruption": 8570,
      "advertises": 8571,
      "Then": 8572,
      "Thursday": 8573,
      "regions": 8574,
      "##izable": 8575,
      "##dera": 8576,
      "complicated": 8577,
      "compliment": 8578,
      "marketingÂ": 8579,
      "##beral": 8580,
      "##dents": 8581,
      "##proof": 8582,
      "suppose": 8583,
      "officers": 8584,
      "meal": 8585,
      "meter": 8586,
      "meant": 8587,
      "##antify": 8588,
      "##antlink": 8589,
      "optout": 8590,
      "optâout": 8591,
      "##bling": 8592,
      "perl": 8593,
      "perhaps": 8594,
      "perks": 8595,
      "soon": 8596,
      "sock": 8597,
      "##ieâ": 8598,
      "partyâs": 8599,
      "##iceworks": 8600,
      "##andmail": 8601,
      "relia": 8602,
      "relative": 8603,
      "reliance": 8604,
      "accountÂ": 8605,
      "accountants": 8606,
      "accountancy": 8607,
      "shareÂ": 8608,
      "decisioning": 8609,
      "decisionmaking": 8610,
      "numeric": 8611,
      "##ilebox": 8612,
      "usedâto": 8613,
      "preced": 8614,
      "prepare": 8615,
      "preamble": 8616,
      "Siteï": 8617,
      "Sitecore": 8618,
      "browsed": 8619,
      "##ername": 8620,
      "##ernetwork": 8621,
      "##ordings": 8622,
      "usersty": 8623,
      "locate": 8624,
      "##mitment": 8625,
      "imple": 8626,
      "immin": 8627,
      "implications": 8628,
      "websiteâs": 8629,
      "ago": 8630,
      "agari": 8631,
      "fund": 8632,
      "profit": 8633,
      "sets": 8634,
      "settled": 8635,
      "throughs": 8636,
      "throughâ": 8637,
      "director": 8638,
      "direction": 8639,
      "devine": 8640,
      "devised": 8641,
      "devising": 8642,
      "deviant": 8643,
      "##ading": 8644,
      "ToÂ": 8645,
      "mailed": 8646,
      "customs": 8647,
      "customizable": 8648,
      "actor": 8649,
      "actors": 8650,
      "actuar": 8651,
      "##cura": 8652,
      "alliance": 8653,
      "allerg": 8654,
      "##ackhaw": 8655,
      "##ackerbar": 8656,
      "browserâs": 8657,
      "quantify": 8658,
      "##ndividual": 8659,
      "formâ": 8660,
      "advertisingÂ": 8661,
      "supervise": 8662,
      "supervising": 8663,
      "##embly": 8664,
      "##ematical": 8665,
      "wishing": 8666,
      "helpline": 8667,
      "##equest": 8668,
      "##odes": 8669,
      "##oded": 8670,
      "companion": 8671,
      "companie": 8672,
      "senders": 8673,
      "providersâ": 8674,
      "orderfor": 8675,
      "##phones": 8676,
      "##phlets": 8677,
      "##phoning": 8678,
      "communicates": 8679,
      "improperly": 8680,
      "clone": 8681,
      "clock": 8682,
      "clinical": 8683,
      "clarification": 8684,
      "##ipulation": 8685,
      "##istering": 8686,
      "indication": 8687,
      "counting": 8688,
      "##ractive": 8689,
      "examinations": 8690,
      "speed": 8691,
      "tracker": 8692,
      "trackers": 8693,
      "webinars": 8694,
      "behind": 8695,
      "corp": 8696,
      "correl": 8697,
      "corroborate": 8698,
      "##veloc": 8699,
      "##velUp": 8700,
      "upper": 8701,
      "upgra": 8702,
      "upvotes": 8703,
      "theirbrows": 8704,
      "folders": 8705,
      "##ulars": 8706,
      "plc": 8707,
      "plate": 8708,
      "plain": 8709,
      "##ercising": 8710,
      "asking": 8711,
      "Which": 8712,
      "Whether": 8713,
      "Wholesal": 8714,
      "##such": 8715,
      "##suite": 8716,
      "##subscribing": 8717,
      "##ously": 8718,
      "respondents": 8719,
      "undergo": 8720,
      "underwrit": 8721,
      "activated": 8722,
      "needing": 8723,
      "specifications": 8724,
      "safer": 8725,
      "saves": 8726,
      "savings": 8727,
      "Proceed": 8728,
      "Provision": 8729,
      "desk": 8730,
      "desires": 8731,
      "hassle": 8732,
      "promoting": 8733,
      "promoted": 8734,
      "promoters": 8735,
      "chooseby": 8736,
      "newspa": 8737,
      "operates": 8738,
      "recent": 8739,
      "recall": 8740,
      "recons": 8741,
      "reconcili": 8742,
      "recreational": 8743,
      "##aches": 8744,
      "##achine": 8745,
      "##greement": 8746,
      "legitimately": 8747,
      "Uses": 8748,
      "Username": 8749,
      "avast": 8750,
      "avatar": 8751,
      "avira": 8752,
      "avantlink": 8753,
      "##mining": 8754,
      "##ministrator": 8755,
      "researching": 8756,
      "researched": 8757,
      "phases": 8758,
      "phrase": 8759,
      "philos": 8760,
      "##levard": 8761,
      "manipulation": 8762,
      "##ocacy": 8763,
      "##ocodes": 8764,
      "revenue": 8765,
      "additions": 8766,
      "##alling": 8767,
      "customercare": 8768,
      "likes": 8769,
      "liking": 8770,
      "liked": 8771,
      "likeli": 8772,
      "liberal": 8773,
      "assured": 8774,
      "assurance": 8775,
      "assume": 8776,
      "approve": 8777,
      "approaches": 8778,
      "postc": 8779,
      "##prises": 8780,
      "relevancy": 8781,
      "formats": 8782,
      "##ookieâ": 8783,
      "remediate": 8784,
      "##egal": 8785,
      "##egistered": 8786,
      "##ography": 8787,
      "##tailed": 8788,
      "limits": 8789,
      "machineâread": 8790,
      "##ilian": 8791,
      "appraisers": 8792,
      "appletv": 8793,
      "regards": 8794,
      "regarded": 8795,
      "arena": 8796,
      "arisen": 8797,
      "workstations": 8798,
      "cares": 8799,
      "preferential": 8800,
      "demo": 8801,
      "stories": 8802,
      "##eaholic": 8803,
      "introdu": 8804,
      "experts": 8805,
      "structures": 8806,
      "tab": 8807,
      "tabs": 8808,
      "submissions": 8809,
      "companiesâ": 8810,
      "Customs": 8811,
      "Customization": 8812,
      "transmits": 8813,
      "communicationsÂ": 8814,
      "messenger": 8815,
      "lawsuits": 8816,
      "behave": 8817,
      "signs": 8818,
      "seeÂ": 8819,
      "seecontact": 8820,
      "logo": 8821,
      "logon": 8822,
      "logistics": 8823,
      "logfiles": 8824,
      "##priated": 8825,
      "##lier": 8826,
      "PrivacyAd": 8827,
      "arts": 8828,
      "simple": 8829,
      "preferencesÂ": 8830,
      "Form": 8831,
      "Forter": 8832,
      "circle": 8833,
      "circulars": 8834,
      "inquire": 8835,
      "inquires": 8836,
      "circumstance": 8837,
      "volume": 8838,
      "voluminous": 8839,
      "circumstancesâfor": 8840,
      "generating": 8841,
      "##rington": 8842,
      "mainly": 8843,
      "submits": 8844,
      "submittor": 8845,
      "ecosia": 8846,
      "nothing": 8847,
      "payers": 8848,
      "paywall": 8849,
      "providingÂ": 8850,
      "noncomm": 8851,
      "nonâP": 8852,
      "##ftware": 8853,
      "belong": 8854,
      "##pected": 8855,
      "unlock": 8856,
      "stats": 8857,
      "static": 8858,
      "statics": 8859,
      "statnews": 8860,
      "admins": 8861,
      "administrator": 8862,
      "administrators": 8863,
      "cards": 8864,
      "cardâs": 8865,
      "residual": 8866,
      "residential": 8867,
      "Comments": 8868,
      "Combine": 8869,
      "Commitment": 8870,
      "periodic": 8871,
      "participated": 8872,
      "article16": 8873,
      "obliging": 8874,
      "responds": 8875,
      "references": 8876,
      "referenc": 8877,
      "##ariety": 8878,
      "adserver": 8879,
      "regulates": 8880,
      "surround": 8881,
      "phoneâs": 8882,
      "affiliatesâ": 8883,
      "Sitesâ": 8884,
      "Sitesâwhich": 8885,
      "shareddoc": 8886,
      "purchaser": 8887,
      "purchasers": 8888,
      "changed": 8889,
      "currency": 8890,
      "##abling": 8891,
      "enterprises": 8892,
      "removeÂ": 8893,
      "Again": 8894,
      "Agency": 8895,
      "owing": 8896,
      "owens": 8897,
      "localsearch": 8898,
      "revoked": 8899,
      "paymenticon": 8900,
      "##actional": 8901,
      "resolutions": 8902,
      "recordkeep": 8903,
      "train": 8904,
      "trace": 8905,
      "trades": 8906,
      "deletes": 8907,
      "unsuccess": 8908,
      "unsubscriptions": 8909,
      "accepts": 8910,
      "statistic": 8911,
      "instigation": 8912,
      "specificity": 8913,
      "entries": 8914,
      "entitles": 8915,
      "copying": 8916,
      "fulfilled": 8917,
      "otherservices": 8918,
      "Govern": 8919,
      "GovD": 8920,
      "sweepsta": 8921,
      "viewers": 8922,
      "doesnt": 8923,
      "##ordinate": 8924,
      "##inters": 8925,
      "##intosh": 8926,
      "blackhaw": 8927,
      "##etsâ": 8928,
      "washington": 8929,
      "thereon": 8930,
      "thereâs": 8931,
      "standardized": 8932,
      "typical": 8933,
      "crew": 8934,
      "creates": 8935,
      "creator": 8936,
      "passed": 8937,
      "passive": 8938,
      "beaconsâwhich": 8939,
      "softnews": 8940,
      "##athy": 8941,
      "##athernetwork": 8942,
      "organize": 8943,
      "organized": 8944,
      "portfol": 8945,
      "profileâs": 8946,
      "infringing": 8947,
      "Star": 8948,
      "Stop": 8949,
      "Stories": 8950,
      "Strateg": 8951,
      "subset": 8952,
      "heart": 8953,
      "hewit": 8954,
[...]
