[PAD]
[UNK]
[CLS]
[SEP]
[MASK]
!
"
#
%
&
'
(
)
*
+
,
-
.
/
0
1
2
3
4
5
6
7
8
9
:
;
<
=
>
?
@
A
B
C
D
E
F
G
H
I
J
K
L
M
N
O
P
Q
R
S
T
U
V
W
X
Y
Z
[
\
]
_
a
b
c
d
e
f
g
h
i
j
k
l
m
n
o
p
q
r
s
t
u
v
w
x
y
z
|
¡
¢
§
©
ª
®
¯
½
¾
¿
Â
Ã
Í
ß
à
â
é
ï
ü
‐
‑
–
—
‘
’
“
”
•
…
■
##e
##s
##i
##d
##u
##a
##l
##n
##t
##h
##o
##r
##f
##q
##x
##g
##m
##c
##p
##b
##y
##F
##k
##M
##S
##â
##w
##I
##z
##K
##Â
##v
##N
##G
##6
##9
##4
##2
##8
##ª
##T
##0
##A
##5
##j
##O
##J
##1
##P
##U
##C
##®
##E
##B
##R
##3
##X
##D
##L
##ß
##Y
##H
##V
##W
##7
##é
##Q
##¢
##Ã
##ü
##©
##¯
##ï
##Í
##¾
##er
##on
##at
##es
##ou
th
##or
you
##in
to
##ion
the
in
##it
an
##ro
##ct
##ing
##ic
##al
##ation
##ed
##ur
of
##en
and
##for
pro
##ers
##is
##form
##le
##formation
or
your
##ar
us
re
information
##an
co
##ess
##ata
ma
##erson
data
##ersonal
##ve
##il
##ent
con
we
##ect
##ta
our
personal
##ith
##ig
##cess
with
for
##erv
may
as
##id
su
##as
##igh
##ight
##ervic
##ch
##ri
right
##th
be
##est
com
##vid
##ir
wh
ha
on
have
##os
##ter
##ies
process
##re
use
##ot
##ly
de
##om
ad
provid
##ce
##ervices
##ut
that
##qu
##ble
##et
We
##ther
##art
##ate
##ol
ac
processing
not
##ity
##ac
##lect
part
##ow
such
any
##im
##tain
In
##cl
al
col
by
ab
collect
##ud
##ject
##out
##ite
if
##ra
##bject
##pl
requ
##tact
##riv
##if
##ver
pur
other
contact
##st
is
##able
##tect
about
##clud
##ge
includ
##ill
at
tr
services
ex
##ok
provide
##rom
##bs
protect
##pos
cons
from
##acy
purpos
##ated
##ment
st
##rivacy
##nt
this
are
Information
##am
##fer
object
will
lo
ne
##ans
##ird
it
cont
add
sh
##ere
un
le
consent
request
purposes
##ail
##ul
third
##ions
##so
Personal
can
inter
including
privacy
Services
##ase
ap
en
##ws
##ertain
res
cook
##pt
##ervice
trans
protection
##pe
##uct
certain
##ist
out
##ount
also
##un
##ress
##ive
comp
access
tim
em
##cis
##low
acc
cookies
time
##um
address
##ure
##el
##isit
##ain
##let
visit
where
You
do
off
##end
webs
comm
how
leg
la
##ong
shar
##utom
##og
when
se
##lease
##ich
##vert
##ication
autom
##us
##ine
##ark
which
##rou
email
##vertis
ch
##age
##ust
##ose
##arket
##ard
interest
##iv
mak
##uth
please
##per
long
##ction
fe
market
dis
service
advertis
Th
##ures
reg
por
##ility
##uthor
bas
rece
##raw
##duct
##draw
##iz
withdraw
##ites
##der
compl
marketing
##ff
##bility
##ber
##dent
##pro
sup
##ors
offic
me
##ant
##olic
##ci
##ance
parties
##ustom
##ll
author
##ces
##ome
appl
decis
opt
##bl
automated
eu
##dentif
complain
per
##ical
##ary
porta
complaint
portability
so
##ag
##ie
provided
party
##ments
##ice
##and
officer
rel
account
share
decision
feat
num
te
##ay
law
transfer
##olicy
some
##ile
used
##cri
identif
##ory
##ence
based
bro
pre
necess
features
Site
##ducts
##ep
necessary
##ual
authority
number
##ish
brows
able
##ern
##gh
##por
requir
##ord
users
loc
rights
If
receive
legal
##mit
im
website
site
subject
making
ag
collected
fun
##crib
##ame
lod
prof
lodge
retain
set
##ore
##rough
rest
##cern
concern
##irect
restri
##lete
through
direct
##ple
dev
##pon
##ad
##red
To
##ork
##chn
##ations
##ese
mail
##ating
##ting
custom
visitors
##icable
act
##cur
applicable
##eep
##rope
all
partic
##ropean
##ack
browser
##aly
techn
contro
qu
##nd
policy
form
##ke
advertising
##iness
##usiness
##act
##ervis
supervis
device
##em
##ia
##ements
products
interests
wish
hel
function
##equ
supervisory
##od
compan
content
send
european
providers
##ages
##ever
##iling
order
help
##ph
its
##arch
business
using
commun
##ics
impro
profiling
cl
keep
below
##ip
##ister
analy
only
##port
name
##line
quest
##ications
ind
count
##ract
exam
spe
##ob
##ries
cho
example
websites
##ove
##ruct
track
##cial
er
##ional
web
beh
Service
##vent
Data
cor
ty
##vel
improve
##ities
however
controll
up
their
##ign
##ide
aff
restrict
##asure
fol
these
identifi
questions
follow
##ders
##ular
pl
##vi
##ercis
ask
Wh
##ry
exercis
##tern
discl
##curity
##other
delete
##su
##mot
another
##ous
##ection
respon
under
controller
##bscrib
activ
##op
online
##ason
need
##ivid
##cif
##rivy
reason
include
##ically
##ividual
##imate
specif
bet
adequ
Privy
sa
##one
##iss
Pro
##ful
##olog
security
required
particular
concerning
but
##ences
user
des
ful
has
register
##earch
##ners
promot
perform
choose
##itimate
news
individual
oper
rec
##ach
##gre
##raph
legitimate
The
##tings
grou
##bscribe
Us
av
##ld
##our
location
read
##ates
Web
##tand
##min
research
more
ph
those
##lev
##greg
technolog
IP
##ubl
purpose
##ize
corr
man
##ible
##oc
rev
addit
##all
##imit
##ized
customer
newslet
li
##ial
##ace
ass
appro
pos
##ms
##pr
relev
unders
chan
format
##obile
understand
##ook
rem
##eg
exist
settings
page
##ily
##ograph
relevant
mobile
make
better
##ices
offer
##tail
limit
following
##ick
##ents
allow
exercise
##tent
publ
##ted
mach
readable
machine
##erve
##ances
##ili
app
##btain
##ould
##ured
regard
ar
obtain
##ience
Intern
contract
work
##yst
##stances
common
like
##ystem
car
detail
prefer
adequate
avail
##ctif
rectif
Internet
dem
stor
comply
system
##ea
int
partners
exper
struct
##iew
ta
structured
##ink
type
##ied
sub
##ission
upd
##ames
erasure
This
each
gd
well
related
companies
commonly
gdpr
Custom
public
available
personally
transmit
communications
mess
laws
advertisements
receiv
functional
beha
sign
inv
existence
regarding
behavi
see
saf
experience
##work
Webs
log
##pri
affili
level
details
##priate
eff
eea
serve
proper
go
demograph
describ
newsletter
##li
When
behavior
##cept
appropriate
##tal
##use
Privacy
without
##plo
art
sim
accord
identifiable
fulf
preferences
For
po
##ener
##ilar
ens
correct
cir
cred
Your
click
circ
inqu
described
##ise
##are
##etwork
circum
ii
deli
relating
deliver
End
sites
vol
##unt
store
interact
identify
company
place
circumstances
##ys
##arily
been
who
enfor
ground
technologies
effect
volunt
her
##iries
gener
##ring
##ffor
##ator
main
##ast
##istr
automat
disclos
similar
intern
accur
support
promotional
fra
##icle
requests
prevent
submit
credit
sit
note
above
functionality
situ
ec
effor
no
pay
pages
way
##tics
inf
##ases
countries
##ploy
effort
providing
inquiries
list
non
op
##ft
bel
##gregated
Our
##side
##pect
them
##ify
unl
rectification
link
via
##ten
belie
stat
Ad
complete
##cip
##ved
usage
##ree
##old
employ
commission
Customer
messages
grounds
Policy
admin
restriction
##ware
directly
country
card
##urther
activities
update
voluntarily
Con
outside
ensure
maintain
event
##sible
##uard
##edia
resid
Com
##iod
##de
##blig
period
particip
article
fraud
date
oblig
would
analyz
##ients
##get
##ific
longer
automatically
further
processed
requested
serv
##oing
##âs
recip
subscribe
collection
respond
addition
Website
general
sour
##wise
refer
conn
performance
##py
##ind
##ari
ads
##iven
regul
basis
sur
phone
affiliates
enforce
situation
believe
accurate
they
properly
Cook
Sites
within
one
shared
transferred
cur
##arget
purch
otherwise
contacting
area
chang
curr
means
concerns
disclose
take
current
##abl
##vis
enter
remove
recipients
Ag
ow
section
##ings
local
revok
dom
names
vari
##se
##ons
##atform
disable
activity
revoke
domain
accordance
fut
hold
##gan
##onom
##ogle
These
permit
operating
payment
future
##onomic
##action
resol
cookie
record
limited
surve
##ass
specified
tra
##alf
often
delet
unsu
behalf
##going
##thers
accept
enable
meas
unless
statist
##uter
##ving
inst
specific
##eguard
safeguard
analyze
ent
copy
individuals
fulfill
others
##ative
extent
computer
mem
requirements
##erms
total
deter
##acons
shall
lawful
contractual
carri
participate
state
cla
##ock
demographics
Go
sw
view
uses
ongoing
##ell
does
##ordin
receiving
economic
case
##int
coordin
own
measures
bl
media
network
want
##ories
Cookies
##ets
##ateg
affect
reasonable
Aggregated
target
was
there
##ffic
social
unsubscribe
Google
##ety
stand
analytics
Provid
coordinator
standard
##cure
conducts
typ
additional
pool
connection
##po
##ctions
##ational
##urn
##ential
located
sources
##ether
##rit
##bit
while
require
invol
cre
elect
pass
##ss
##sta
##fore
beacons
includes
soft
again
signific
categ
hist
##ath
organ
whether
port
profile
sending
infring
carried
software
St
subs
technical
apps
cases
he
##icate
application
previ
categories
previous
might
##hip
##ital
conf
end
offers
##ractices
stored
him
##dit
##ost
respect
measure
change
into
against
##ner
##ron
pursu
stop
contest
control
##phone
tracking
review
obligations
notice
sharing
tele
let
##ony
##arn
union
##soci
search
emails
##istration
resolve
practices
##ue
##bers
new
una
relation
erase
Ac
sat
##fter
##isf
##leg
associ
being
assets
possible
open
##onym
An
Part
here
##kes
ref
disclosure
satisf
mon
mod
##ement
##gregate
employe
safeguards
telephone
give
visits
disabl
##porting
functions
##velop
group
invest
permitted
am
##fers
comments
what
provider
##istent
##ogn
##tention
purchase
##iqu
secure
##aged
manage
various
block
electron
##now
##pa
##word
reporting
##igital
##ult
transfers
##eld
advertisers
types
previously
Ap
call
##gra
anonym
transaction
recogn
phys
##ather
pi
##ield
##ty
##mine
eng
agree
customers
needed
storage
demographic
iii
determine
password
unauthor
investig
##ique
physical
mat
tas
##ck
enh
addresses
applications
aggregate
##actions
full
targeted
task
fin
his
inc
product
develop
listed
dur
ver
protected
learn
technology
portions
electronic
ID
Pl
conduct
surveys
create
monit
rely
processes
##ols
contin
reasons
offered
traffic
Acc
bill
given
know
pr
pri
##ox
##rant
##ccess
##ps
##put
inform
##ider
unique
envis
transmitted
unauthorized
envisaged
##ab
##enc
progra
success
##vern
step
transactions
complaints
point
administer
involved
monitor
gather
person
turn
##iance
##led
##ancial
whom
agre
systems
statistical
Account
steps
EU
aud
free
polic
##eo
##ping
made
personalize
before
##ender
select
##cript
User
assist
govern
infringement
Un
dpo
##ters
than
def
mean
##plement
analys
changes
instruct
pursuant
refuse
mer
â¢
##ient
##ced
##MD
##ross
decl
consider
visited
disput
effectiven
resident
agreements
policies
effectiveness
file
gender
ve
##tc
##pan
##ally
issu
exp
##ends
relations
communicate
fulfil
referred
Analy
billing
Other
PI
after
most
vend
##ict
##land
inac
report
retention
##ang
##play
except
##uses
##ays
identifiers
platform
many
changing
member
associated
financial
Platform
disputes
19
Identif
fre
##xt
##ert
whose
alleg
collects
feel
##ization
WebMD
carry
disclosed
disabled
anonymous
meaning
inaccur
bir
ca
cour
etc
sp
##ined
then
acqu
##ification
registration
perm
corpor
internal
ways
enforcement
PII
birth
De
sc
terms
##av
##ness
##tt
##alth
personalized
detect
##ods
interactions
##istrative
regulation
records
deleted
letter
Digital
Ne
Network
hand
writ
##rance
##ens
consum
consequ
authorities
customize
##eepsta
##fully
promotions
postal
rectify
safety
servers
history
government
relationship
alleged
pat
par
##cing
tools
##asible
across
should
##ended
feasible
display
Third
accounting
technically
Websites
administrative
clauses
Provide
consequences
##eepstakes
10
22
Qu
Se
over
sal
vi
##iable
##lc
proble
least
##ailor
enc
compliance
helps
communication
##portun
responsible
according
opportun
enhance
analysis
Col
Terms
tailor
##du
##ho
##ply
##ond
##esent
##ank
code
browsing
allows
property
info
sweepstakes
Analytics
corporate
Collect
ge
hind
oc
upon
##not
cannot
adequacy
design
newsletters
Contact
significance
employee
decline
Identifiable
meaningful
pattern
hindrance
Non
iv
mis
##cast
##own
consistent
options
##ember
special
Where
logic
efforts
claim
patterns
Re
So
bo
fir
grant
##ited
datab
areas
commer
disc
aggregated
devices
international
lawfulness
verify
sell
##lo
##toc
##ying
##val
##reet
shop
Personally
mailing
internet
Comcast
instructions
dif
##di
##ways
instances
proced
orders
##chan
comb
##oss
adv
##ferent
subjects
agents
survey
members
viewed
recognize
vendors
htt
jur
live
sent
##fact
##erial
##isdi
condit
decisions
##pons
active
##rypt
response
reasonab
##ocation
approved
Advertis
server
significant
merg
occur
different
jurisdi
reasonably
age
same
vers
##aw
##ither
##ired
##ution
trends
implement
affiliated
health
sale
Social
commercial
How
Please
Sh
dest
down
either
fac
ident
loss
##ough
##itz
##roll
usern
ret
##ession
##idi
##irm
habit
always
ability
##ift
show
shield
visiting
emailing
withdrawal
choices
links
organiz
prior
problems
encrypt
##tocol
identity
20
CA
pot
##isl
##ild
##iles
contain
##very
legisl
##ually
receives
clicking
events
residence
statistics
material
audit
conditions
potential
Su
games
sci
##FA
##we
##atory
##entific
once
enabl
char
follows
needs
operate
post
remo
Customers
received
Comm
networks
subscript
subsidi
confirm
agreement
claims
first
granted
##load
username
scientific
Al
Te
book
eas
llc
##uage
##ward
##orical
ins
deal
##tection
##elf
mechan
##blish
agenc
actions
respons
correction
remember
intended
message
variety
##stablish
historical
##anguage
inaccurate
occurred
mechanis
12
11
Business
Eu
On
bu
establish
language
val
##aries
dec
##oms
reside
##els
##ags
apply
generally
deletion
entity
modify
issues
misuse
version
Requ
gu
job
##back
##RL
##lear
##omet
partner
##imes
supply
exercised
betwe
obtained
seek
clicked
identifying
regulatory
satisfying
during
##eople
writing
both
download
European
##ometimes
between
URL
tell
##rop
##ash
##ire
deem
##gether
accessing
##ending
official
authorized
question
identifier
registered
Users
##egr
integr
behavioral
unlaw
continue
shopping
facil
subsidiaries
responses
Sta
clear
fa
hum
spons
tags
zip
##eck
##hi
##ru
##pages
##ken
##RFA
##espon
together
##itled
##uring
meth
##lling
numbers
browsers
sap
functionalities
delivery
prevention
submitted
referring
organis
engage
duration
program
##avig
Advertising
merger
CARFA
##espond
CARFAX
jo
navig
people
sta
sometimes
think
things
init
##itate
##edback
##rib
provides
alter
she
doing
optim
forms
asked
manner
source
determin
contests
freed
human
##hibit
Log
##ds
##ators
##ream
parts
##ples
result
##ants
sole
text
identifies
identification
Products
operations
Use
assess
offerings
connect
confid
Partners
relying
programs
court
opportunity
##valu
decide
deemed
alteration
freedoms
Ex
Over
bank
evalu
nor
qual
vide
##ap
##az
##les
##fy
##flow
##cat
##isk
##ised
##ention
compe
trou
interaction
##ively
##uss
feedback
improving
##ographic
Compan
satisfied
employees
pix
present
platforms
consumer
##hoot
return
organizations
Stack
Overflow
##fycat
compelling
Face
Media
NI
US
files
sens
were
##oid
##opt
##ca
##box
##just
##11
##EA
##erland
##eshoot
##ights
dep
##omm
adjust
##amily
##bleshoot
##aging
feature
concerned
##ruction
avoid
login
Content
maintaining
affecting
among
Appl
pii
successfact
defend
discuss
https
destruction
##itzerland
organisations
quality
troubleshoot
successfactors
Gfycat
Span
every
hard
risk
sm
session
ter
##ian
##book
##00
##PS
##Dict
provis
aspect
##osen
Inc
abs
street
times
chosen
##ayer
##ishDict
quer
Process
goods
accuracy
App
continu
cause
permiss
News
databases
procedures
jurisdiction
Commun
confirmation
agencies
##ropbox
facilitate
Facebook
SpanishDict
Tr
br
put
wr
ww
##games
##bt
##anta
##ently
##ased
##read
##utions
##ampa
ship
accounts
exercising
correspond
lists
entitled
management
called
reports
parent
##ondon
legislator
confidential
norm
sensit
www
##ampaign
EEA
Opt
dist
edu
family
##ability
##me
##mission
##ves
reject
suit
##reat
##ott
notices
notify
still
item
##aily
child
check
##ustry
##ives
There
##izlet
##ffili
customized
Usage
phot
updates
effects
obligation
purchases
entered
standards
controls
Party
model
##ency
successfully
combine
materials
Request
normally
As
Air
Em
It
ben
campaign
fri
find
move
tw
##ef
##ifor
##lined
##nia
##cy
##vice
top
##alifor
##ersistent
having
##ifications
unable
outlined
compet
visitor
##uthent
wishes
They
takes
enforcing
payments
instance
statement
switzerland
affects
infringes
investigate
expir
express
frequ
Device
subscription
Techn
easily
stam
write
##alifornia
Am
By
Rel
Some
With
bott
di
el
hos
il
national
pop
tict
ut
##self
##gg
##ound
##orr
##erse
##arant
reach
datapro
##ilgames
##ceed
contacts
meet
industry
specifically
Protocol
promotion
performing
recomm
taken
good
interactive
regulations
travel
##legal
course
spilgames
tailored
Collected
habitual
mechanisms
valid
guarant
methods
optimize
solely
queries
##antage
shipping
expiration
bottom
illegal
tictail
dataprotection
guarante
3ds
89
Ch
Daily
authent
best
dou
fact
id
##spect
##nb
##by
##bnb
##ora
produ
org
##igin
included
whenever
interested
suppl
##agn
##obe
##motion
##ouse
contractors
care
detailed
stores
publicly
Cont
##fficer
amend
investigation
acquired
Quizlet
Security
sensitive
items
Airbnb
Dailymotion
Cl
Dropbox
Grou
Leg
Location
aware
crit
digital
edit
get
last
london
##eam
##sw
##ub
##af
##more
##wift
##eria
##organ
##ition
##itiz
##icient
reorgan
##ancing
##though
##terest
##ute
coll
expl
united
accessed
commit
##izing
##ief
mails
businesses
identified
##ially
limitation
subpo
efficient
automatic
Add
Cookie
entities
respective
measurement
disabling
New
consumers
viol
advantage
However
##rupt
continued
brand
Email
competent
##orrect
doubt
criteria
subpoen
Nick
action
could
found
kind
persistent
table
##iS
##lash
##nels
##co
##br
##ven
##ort
youâ
prohibit
origin
##arm
cover
forth
foreg
Ind
##itepages
att
reserve
transmission
import
community
restrictions
Whitepages
delivering
similarly
situations
participating
responding
viewing
networking
Providers
typically
Steam
openx
opened
verification
selecting
assistance
Quora
Secure
opportunities
designed
faith
avoidance
aspects
absence
diagn
##ggest
recommend
NickiS
NickiSwift
California
En
Op
Out
SS
Wi
back
cart
cert
must
uk
war
##ex
##iate
##day
##ave
##ton
##ature
answ
##ense
proceed
##ange
forum
##ervation
suggest
##uters
##olocation
notifications
##acies
alert
##stream
consented
##soft
lay
chat
chief
supplement
office
option
##iews
requires
usersâ
retained
plac
##ources
##present
existing
publish
tax
logs
corrected
effective
employment
contractually
blog
State
incorrect
veh
inaccuracies
geographic
database
implemented
auditing
charact
removed
booking
unlawfully
navigate
bankrupt
pixel
discussed
correspondence
confidentiality
distrib
benef
Technolog
popular
suppli
Legal
reorganization
tablet
prohibited
foregoing
Open
bankruptcy
17
GPS
Man
Not
Reg
Sw
Send
Tri
Target
ater
cal
equ
gar
gives
lat
my
old
priv
tit
test
##ear
##ug
##Pad
##EN
##icro
##eng
protocol
yourself
represent
##rive
deact
debit
collectively
##ified
trust
env
optional
transferring
legally
assign
assert
clicks
ec1
administration
Cons
##uardian
entering
resolving
deleting
config
england
investigations
enhancing
pres
United
handled
written
adverse
Shield
enables
joint
determined
video
Company
hardware
two
Related
hosting
util
guarantee
Address
benefit
OpenX
atera
garmin
private
deactiv
8af
At
All
Im
Market
Sp
den
just
mo
pertain
yard
##ix
##iences
##after
##td
##ood
##press
##eric
##ont
##oun
##ropa
##icated
##als
reed
##ervention
white
processors
##reen
useful
although
##istics
##cise
sever
##ffice
applies
europa
close
choice
managing
demand
complying
intervention
updated
logg
going
clickstream
frame
preventing
status
residing
Street
Parties
match
developing
prim
monitoring
governmental
significantly
dealers
established
integrity
sponsor
sponsors
provision
permissions
eduPad
campaigns
factory
##itizen
collar
SSL
layout
suppliers
Trip
##icrosoft
ec1y
framework
13
30
Autom
Be
Citizen
From
Layer
Oper
Pre
Pay
don
game
house
line
treat
ub
year
##ier
##up
##uch
##less
##oper
##mg
##pies
##king
##wit
##01
##DK
##eristics
##ines
##inci
##icating
copies
forward
advis
adopt
##ime
abuse
stated
states
objection
look
##ulent
complet
##agraph
precise
browse
setting
##ionally
What
registering
operation
poss
remain
safe
ensuring
linked
belief
Addit
Adobe
Customerâs
fraudulent
analyzing
served
fulfillment
Providing
additionally
involve
amount
##ultants
conducting
gathered
audience
selected
defined
acquir
permission
paragraph
displayed
vii
geolocation
jurisdictions
encryption
encrypted
201
contained
potentially
enabling
unlawful
##cause
Applications
##ready
frequency
covered
recommendations
characteristics
Technologies
trusted
adversely
Impro
pertaining
several
21
Certain
Geo
Officer
Pin
Res
SM
Set
Sock
Twit
city
es
fed
fill
med
nature
red
ur
uplo
##ufact
##ning
##ti
##time
##pact
##IP
##KE
##35
##eral
##urance
##thing
because
comment
##iry
##osing
##artment
notification
along
##ntil
##amples
requesting
##isition
##ivers
advertisement
held
##bscribing
Protection
operators
understanding
offering
storing
google
generated
furthermore
##inding
owned
thereafter
organization
States
pursued
searches
known
acquisition
detection
membership
http
commercially
charge
removal
subscriptions
Also
##wards
mechanism
downloaded
URLs
NIKE
territ
Americ
explain
Statement
title
representative
Spot
SMS
Twitter
##ufactur
Are
Bro
Do
IS
cri
ess
harm
lit
mention
much
rent
rul
sight
until
vest
##ium
##ibility
##ties
##oft
##ral
##vers
##DDK
##itud
##icles
##isoft
anytime
collecting
##rael
exit
##unction
accessible
wherever
makes
bases
withdrawing
opting
##epend
locations
impact
##ipment
analyt
analyse
##linemg
err
webm
webpages
While
Protect
userâs
manually
manufactur
allowed
availability
experiences
Admin
swiss
therefore
Access
associate
calling
learning
informed
administering
persons
merch
vendor
screen
handle
overr
##lcome
##anker
legislation
Such
buy
determining
connected
Examples
evaluate
evaluating
NIDDK
depending
Communicate
Trans
Track
produce
Group
important
diagnose
warrant
answer
suggestions
alerts
vehicle
equipment
Marketing
Automat
ubisoft
##inciples
Settings
upload
Spotify
essential
mentioned
sightlinemg
vested
##itude
53
Dep
Ear
Mult
Ro
Sim
TEN
Val
York
avid
bre
days
mind
nb
ra
ro
sure
vent
won
##ealth
##io
##iative
##ling
##hn
##of
##cu
##cun
##911
##TI
##ON
though
##cture
##ising
mass
##ilities
welcome
##asing
##th911
adroll
##olution
already
lead
canad
compile
computers
docu
offline
seen
##round
diss
That
basic
##anding
team
preca
##key
sends
client
##iply
indicated
controlled
reviews
posted
##egg
likely
updating
signed
corrections
credential
inquiry
##tenance
residents
instit
portion
Any
securely
anonymized
recognized
picture
Union
considered
perman
designated
initially
results
videos
Companies
USA
troubleshooting
Processing
##ffiliated
##ffiliates
friend
friends
topic
subpoenas
kinds
Individual
certification
Beacons
federal
explained
ISP
rules
Earth911
Multiply
nbcun
precautions
14
15
Dem
Ec
Fin
HT
LL
Zill
bure
cent
driv
gl
gif
gbr
home
host
jud
lic
light
min
run
sch
sold
âc
âopt
##eer
##ded
##date
##uet
##nitz
##oo
##over
##privacy
##kt
##wh
##AM
##OS
##10
##EC
##RM
##Ranker
##orpor
theft
##icial
prospect
##ision
usa
##ident
advert
export
exhibit
Informationâ
next
leave
reservation
##ume
addressed
withdrawn
sohn
broad
imm
images
retains
##iability
erased
controllers
plug
saving
Proper
operator
channels
##ookies
allowing
intra
volunteer
maintenance
completely
Conduct
obliges
recipient
carrier
swift
herein
groups
blocking
development
issue
Platforms
detecting
handling
combined
destin
##roller
posts
insights
integrate
pixels
adjusting
small
provisions
permissible
suitable
photos
stamp
stamnitz
elig
else
dataprotectiono
authentication
Controller
committed
efficiently
placed
distribution
testing
envy
assigned
logged
treatment
adopted
Additionally
GeoRanker
Pinterest
Area
Similar
Valve
breach
raise
massage
dissolution
credentials
Demographic
Economic
LLC
Zillow
burea
gifs
exhibitions
And
Fire
Flash
Gener
Guardian
Hill
Health
Ltd
ML
Or
Object
ce
cat
div
flash
ip
ke
met
microsoft
net
pol
range
size
ul
wor
##ext
##sel
##tended
##file
##mpor
##com
##pic
##bed
##ID
##zes
##Ad
##AC
##PI
##ingly
##alog
##ediate
cost
##ilton
##table
suspect
##chang
##rict
hap
##tery
##utory
noted
Interest
##place
contacted
exchang
str
stud
context
enqu
reset
resources
outâ
##und
embed
seg
dispos
advertiser
tempor
something
impa
directed
acting
##ternative
save
Profile
promote
recru
arr
##eav
affiliate
describe
simply
statutory
periods
purchasing
resolution
owner
targeting
created
endeav
unaffiliated
Apps
incom
points
problem
Rec
merged
showing
audits
easier
insurance
agency
build
establishment
method
engagement
programm
navigation
termin
checks
photo
violations
proceedings
Swiss
##ength
deactivate
mov
sponsored
possession
2018
Improve
American
##ependent
Automatically
533
ventures
canada
document
judicial
âcookies
prospective
swiftkey
dataprotectionoffice
bureaus
MLB
catalog
impaired
recruit
25
64
87
Affiliates
Cred
Fe
Is
Kay
Li
Limit
Mary
Name
Pr
Per
Publ
Rep
Search
Sending
Sources
Up
air
box
binding
cr
cou
came
due
fl
hol
hilton
pus
pti
zone
##sh
##sp
##sy
##data
##air
##aps
##lty
##ne
##noun
##tion
##hed
##hold
##hap
##ope
##ren
##fin
##fox
##gc
##pace
##bilities
##yond
##know
##In
##onor
##outh
##oura
##ores
##ining
intention
##itiative
announ
##ingle
##alent
##urion
##ural
real
reuse
##annels
asurion
beyond
##ests
why
##retion
##cements
##uty
##olink
acknow
##imum
Inter
Inde
Initiative
##stant
extern
stating
strict
##aming
unhap
##ulation
enroll
resume
comprom
compiling
accident
##elp
Through
regular
##blox
##ords
agent
quick
supervision
itself
keeping
indicate
##ovelty
improvement
restricted
player
underta
##minal
preference
substant
transmitting
##like
ensures
commissioner
Compl
##gets
serving
accurately
permits
permitting
accepted
install
creating
hear
calls
matters
carrying
cap
spam
scroll
encoura
Rece
Reolink
discretion
procedure
habits
Commission
remembering
Online
fax
assessments
##aze
department
Application
children
idgc
carefully
subpoena
youâre
forums
Manage
Registration
later
preserve
primary
Prefer
Payment
household
looking
Sockets
##iversal
Brows
criminal
analytical
override
Roblox
permanently
Individuals
license
##ktop
adverts
immediate
Properties
Firefox
cease
suspected
happy
embedded
temporarily
arrange
incomp
6435
877
Credit
Like
Limited
Perform
push
announcements
acknowled
Indeed
external
unhappy
substantially
16
800
Att
Book
Dis
Gu
IN
Le
Low
Loc
Me
Member
Overs
Pur
Par
Right
Section
System
South
UPS
aon
afore
ban
bod
cross
der
drive
est
fish
foc
fav
guardian
ht
high
iOS
length
mar
ov
pa
rout
rich
side
script
single
win
wid
york
âP
##da
##dom
##ule
##au
##nel
##took
##tock
##mb
##cont
##pers
##par
##page
##FO
##40
##80
##Tra
##ATI
##atch
##inion
##ioned
##ingdom
##uration
##enu
orient
usable
remin
informational
oursel
##iding
##aster
bec
beac
##ottery
##uto
##olute
Ins
Intended
ext
protecting
consultants
##mentioned
stream
neg
cance
privacyp
appe
##eli
sex
secur
emailÂ
##ards
##iving
registr
portal
offices
prem
Tools
acted
actual
##active
##empt
clients
closing
improvements
##subscribe
undertook
said
particularly
hashed
operational
##ource
posting
arising
contracts
signing
behaviour
articles
correctly
whole
enforced
voluntary
generate
listings
employer
maintained
serves
Agents
Aggregate
owners
trade
unsubscribing
measuring
Googleâs
subsequ
pursue
reflect
transactional
analyses
capa
Develop
scope
handles
Contacting
procedural
Share
habitually
organizational
value
modifying
tells
clearing
initi
initiate
##appro
everyday
absolute
##readless
Therefore
frequently
Channels
Club
Groupon
branded
youâve
original
proceeding
Notice
Consultants
configure
configuration
utilize
benefits
denied
primarily
dealership
frameworks
years
remains
medpace
google®
territory
##unctional
webmd
manufacturers
Tracking
glob
##ooth
##where
##ECT
##RMATI
destination
eligibility
elsewhere
world
enquiries
Israel
Principles
compromised
quickly
Compliance
encourage
immediately
Attn
Booking
INFO
Overstock
aforementioned
fisher
favor
htm
scripts
widgets
ourselves
beacon
##RMATION
INFORMATION
06
18
23
45
Ass
After
Ble
Bill
CO
Cho
Corpor
Et
Fi
Fed
Fir
Further
Jav
KB
Karm
My
Microsoft
MAC
NY
Nor
Of
Office
Rights
Sam
Spons
Ty
UK
Visit
ach
dot
dropbox
ever
far
fast
field
fix
gr
geo
gmb
giving
lif
ltd
mans
mone
ny
pok
ser
sam
tre
tied
titled
views
wide
waz
yo
##ec
##eve
##ipt
##ls
##late
##to
##officer
##rast
##gent
##gage
##ground
##mon
##miss
##cas
##cond
##bur
##Fi
##ML
##âve
##way
##AI
##UR
##RS
##émon
##erally
##ones
threat
token
inappro
##rol
##ingu
##ared
repe
##tadata
personalization
personalizing
##igation
subscrib
susp
##rieve
##iron
##ires
processor
##imo
color
##plitude
attention
exec
##romot
##mental
shown
unlike
##ailing
##ulate
privacyofficer
##eless
interesting
##ived
Threadless
##izzes
##ieve
funda
##adem
customizing
actually
##ode
contents
##ructure
play
Product
Progra
desktop
fully
##acher
##ublic
##alls
postings
exists
limiting
limitations
taking
signals
gov
disclosures
supported
submitting
infrast
##ifying
referr
referral
regulator
currently
##visor
entry
entire
fulfilling
thereof
Provider
involving
involves
modification
modified
amplitude
unauthorised
knowingly
successor
Uni
defense
issued
exceptions
capt
spent
space
birthdate
scan
scores
Networking
sales
Collection
##loor
##change
retrieve
containing
Allow
Team
booker
Once
officials
returns
Communications
movement
authenticate
produces
Contract
Newegg
attempt
importance
diagnos
supplementary
popularity
calc
environ
utilized
TripAd
Operate
acquiring
redu
territories
literally
error
errors
Administer
Depending
institutions
nbcuniversal
HTML
running
##ueto
exchanges
study
segments
##ternatively
programming
termination
MLBAM
Publish
Report
##shield
##news
accidental
Receive
Browser
incomplete
acknowledge
focus
appear
secured
registrations
global
favorite
Bleacher
Etsy
First
KBB
Karma
Sponsor
Typ
achieve
gmbh
mansueto
money
pokémon
treated
wazimo
yoox
##missions
inappropriate
fundamental
infrastructure
TripAdvisor
1d
28
3m
36
300
88
94
Auto
Briv
Barn
Based
Cre
DA
Deli
EC
Fan
Floor
Gl
GI
GD
Ire
Link
London
Med
No
Num
Rese
Respond
Sn
Sur
Stand
Upon
Und
Ver
WE
Xfin
YO
base
draw
dates
even
epic
fail
food
gate
graph
gath
gift
honor
ir
ico
kingdom
ls
liability
mal
mom
mark
mand
pie
pack
race
sess
self
tri
wir
âIP
##ew
##solic
##ii
##des
##uel
##ak
##aS
##look
##na
##network
##tv
##tons
##oint
##overy
##ran
##rics
##far
##fell
##man
##mpt
##mark
##mond
##certain
##public
##yle
##Fs
##ze
##NG
##20
##PR
##Ch
##ES
##Duel
##erg
##online
##ater
##ouch
##inite
##incip
inso
anti
##roid
##icit
##icing
##icip
##edIn
##force
prove
prompt
##erstand
usually
usability
reve
release
retail
cooper
##enter
conven
weather
personalised
##ervations
##idation
subscribing
##chmark
##ths
come
##irements
##irates
##rey
del
degre
debt
##utes
##ately
academ
##raz
israel
atÂ
try
expect
protects
protections
start
##ferred
objected
near
contrib
short
unsolic
apa
transport
##peed
outs
emirates
separ
##usic
##used
##usive
che
##ivision
marketplace
receipt
suppress
metadata
applied
opted
##andang
relies
relate
relates
reliability
prev
aggreg
profiles
##adrant
mailings
customization
##curring
quizzes
quadrant
formal
##kefell
ordering
communicating
indef
index
counts
webpage
##veloper
restricting
plan
undergoing
##opinion
performed
operated
manual
##ockefell
approx
remed
Internal
preferred
adequately
messaging
invo
levels
delivered
interacting
placement
disclosing
oppos
linking
Ads
maintains
participation
obliged
surf
surrey
oneopinion
purchased
owed
computerâs
##ellers
##point
requirement
Partner
hereby
satisfact
satisfaction
monet
months
Apple
engaged
engines
matter
tasks
incre
income
IDs
principles
princip
##psh
turning
Unsubscribe
Univision
spend
relationships
parents
1011
1001
##hoo
gear
geograph
misused
boards
verifying
Advertisers
healthline
Shop
Sub
enabled
charg
removing
Alternatively
dealings
One
Only
buying
Requirements
facilities
join
jobs
assessment
courts
Express
##aza
presented
returned
smart
putting
distingu
benchmark
movements
tw9
topics
expressly
Technical
Relations
hosted
reached
Click
explicit
commitments
violation
brands
kindly
Independent
attn
Outlook
WiFi
certified
##expo
answers
publishers
blogs
vehicles
latest
Addresses
deactivating
reedexpo
demands
logging
Operating
advisable
completed
acquires
Improving
Socket
esa
litigation
webmaster
manufacturer
merchant
Transactions
nbcuni
Financial
center
minimum
Android
General
kept
metrics
disposition
movies
crash
installed
Management
Preferences
arrangements
Learn
System1
banner
estimate
overse
richmond
âPersonal
##Trader
orientation
reminders
become
privacypractices
sexual
subsequent
##unctionality
JavaS
Samâs
grinding
suspend
reduce
Types
1dn
Brivo
Barnes
FanDuel
Glass
GIFs
GDPR
Ireland
LinkedIn
Medium
Noble
Number
Research
Snap
Surve
Understand
Xfinity
gateway
gathers
wireless
âIPâ
insofar
reveal
degree
academia
unsolicited
##andango
indefinite
##ockefeller
10112
distinguish
JavaScript
24
27
31
49
440
75
77
8f
84
90
97
Ab
Aud
API
Bl
Bea
CI
CT
City
Cost
Det
Ful
Help
IT
La
Live
Law
Main
More
Mem
Mobile
Most
NAM
Novelty
NAI
Pass
Persistent
Sc
Sal
San
Sign
Slate
Vend
Waze
ZIP
affor
award
bal
bab
bough
citiz
craz
dm
dat
dam
day
drop
duty
ed
eood
fig
fandango
ger
gro
gen
gain
guard
giles
hb
hot
hob
hires
jum
jtv
kings
lu
ll
lan
lia
landing
lottery
mult
novelty
obs
pred
privy
pick
past
path
rain
rockefeller
sol
sbs
vary
voc
wü
wing
words
zeng
âA
âO
âH
##ek
##sm
##ious
##iast
##ny
##ned
##tel
##ticip
##hot
##hare
##oy
##oard
##rd
##rt
##rz
##rate
##fill
##food
##gs
##gaming
##maps
##menu
##cal
##cation
##core
##comm
##pst
##pport
##bro
##bies
##bly
##bod
##board
##yal
##yone
##yegg
##ky
##ât
##Â®
##vest
##21
##TS
##junction
##joy
##OP
##121
##Pal
##Ex
##LL
##ße
##ery
##onst
##atures
##atible
##oud
thes
##orate
##orial
##orily
##ins
##inions
##inue
thebl
input
inferred
##its
##itations
anticip
##inger
##icants
##edule
##enge
##enue
##ford
##fortable
project
protoc
##ism
##isible
##lex
##ars
##arent
usps
rep
rele
rewards
recurring
informationâ
##anced
##ancy
max
##iled
conjunction
ourÂ
##igate
##cessary
ascertain
suite
super
suffic
##ascript
##cho
##chtel
##thus
bechtel
##estyle
comfortable
##recip
##otes
deploy
##ompl
##uted
##quidation
##ower
Invest
##clos
abide
abusive
exchange
##poses
consist
strive
objects
load
loyal
added
left
consents
##ulary
interoper
privacyshield
enjoy
enthus
transit
##istory
##under
emplo
emerg
accompl
##umer
addressing
whereby
shares
second
chall
##ivity
##ivalent
advertise
##izes
complied
partiesâ
authorize
##ager
##andme
transferability
someone
requiring
locator
retaining
restruct
##irectly
deviceâs
improved
independent
choosing
ups
restricts
##dershare
plaza
activate
specify
buttons
desired
desire
individually
recently
recovery
Using
##ourg
moreover
##levision
technological
managed
liable
libr
liquidation
position
##prices
##print
##tails
apparent
arise
arrive
obtaining
contracted
works
demonst
submission
invitations
safari
appropriately
effectively
situated
nonpublic
opinions
##fts
employers
Conn
periodically
analyzed
theyâve
##argeting
##onsistent
accepting
statistically
blue
affected
thereby
passively
reviewing
associates
##onymous
blocked
electronically
##papers
recognise
recognised
engine
engaging
finally
incorpor
inconsistent
production
continually
prize
##abulary
personnel
audio
freely
defence
declining
considering
expanding
afterwards
anonymously
corporation
birthday
overall
accordingly
tailoring
occas
Reuters
firms
commerce
discont
shopify
actively
Advertiser
versions
implementing
Suite
Subject
Subs
subsidiary
Although
valu
Required
clearly
staff
Login
assessing
banking
##apital
discussion
Gfycatâs
risks
query
continuous
Community
sensitivity
Opting
photograph
expressed
Among
Withdraw
collab
Emails
originated
attrib
Enforce
background
wargaming
officecom
placing
distribute
Regulation
Switzerland
equivalent
Consent
Consumer
jointly
OpenXâs
deny
justice
moz
usefulness
Prevent
PayPal
donât
advisors
completion
completing
Additional
Reservation
Resource
urgent
##ningmaps
##iversity
America
crime
analytic
Protecting
merchants
overriding
warrants
Department
wondershare
institution
HTT
driver
driving
lightningmaps
##uetooth
divine
polit
polls
strateg
endeavor
endeavour
Records
buildings
movie
catalogue
recruiters
Features
Update
flights
Interactive
undertaking
capable
scrolled
Disclos
Guest
Lowes
Measure
Purposes
Parents
marital
paid
##control
Insider
negative
premium
ownership
capabilities
0680
23andme
Billing
COLL
Corporation
FedEx
Furthermore
Offer
Visitors
fastfood
fields
lifestyle
serco
samyone
widely
##burg
threats
subscribers
##romotions
entirely
Uniform
attempts
diagnosis
environment
Publishers
888
Create
Standard
graphic
irish
moment
piece
package
##many
retailers
separately
prevailing
invoicing
surfing
satisfactorily
monetize
principal
benchmarkprivacy
explicitly
crashes
overseas
Snapside
Surveys
indefinitely
About
Bluetooth
Beauty
Costco
Detect
Fulfill
Members
NAME
Vendors
baby
bought
citizens
crazyegg
dmi
germany
hbp
hobbies
jumpst
liabilities
vocabulary
würz
wingify
zenguard
##iastnetwork
##menuprices
##brows
##body
theblaze
protocols
sufficient
##recipes
loyalty
interoperable
enthusiastnetwork
employs
emergency
accomplish
challenge
restructuring
library
demonstrate
discontinue
officecomms
fastfoodmenuprices
samyonews
jumpstart
würzburg
07
3rd
635
95
Av
AT
AC
Ave
Aust
Author
Bu
CB
Can
Count
Cli
CON
Center
Capital
Di
DM
DI
Dou
Date
Driv
Ed
Elect
Ent
East
Every
Epic
ETS
Fri
Family
Fran
Ge
Hel
Hold
Honor
History
IK
IMD
Jo
Job
List
Ma
Maps
NB
Oc
PO
Pal
Pos
People
Rad
Rem
Serv
Session
Sometimes
Saf
Save
TV
Tra
Tel
UD
Vide
View
Wal
Wind
Ya
Y8
Yelp
aid
around
bor
bul
brit
bost
cn
cell
cpa
california
coun
du
dr
dig
dial
dys
eg
fit
fur
four
france
foo
great
gaming
gau
gsm
hes
hor
jav
lost
lights
mit
mouse
menu
music
now
pract
pse
pty
pub
ren
rate
rating
rob
rather
rank
rule
sn
sy
sect
song
sport
spr
sort
tast
touch
vot
visible
watch
xii
yet
âp
âcl
âID
ïª
##eth
##event
##iver
##iant
##iple
##do
##dating
##due
##aid
##apt
##ader
##aving
##auses
##light
##lobe
##lines
##no
##nat
##her
##hance
##hob
##oot
##oving
##oods
##rb
##res
##right
##fet
##face
##functionality
##gor
##ging
##grou
##mt
##mp
##mary
##mund
##cent
##pp
##pets
##bb
##bon
##yers
##ker
##Mat
##SI
##âout
##âwh
##wor
##with
##west
##zing
##Kit
##view
##vency
##61
##28
##27
##Th
##TN
##TOP
##And
##jud
##OT
##Promotions
##CO
##RECT
##ero
##onhob
##atives
thir
three
##ority
##ino
##ince
tot
too
tool
told
##ionate
inactive
inno
##iting
##iture
##ington
##icates
##ena
andÂ
proves
##ership
##ises
##isation
##isle
##lephone
##arta
codes
##essional
maps
##vey
conform
convey
##tack
##igence
##erves
##ides
##idge
##idents
##chut
##estions
##estiture
coming
whol
ones
##rel
##reens
##cel
##ceived
##thern
##older
##olved
##olvency
notified
##ows
anyone
anything
##imal
##clus
alone
alternative
algor
##raße
purge
##standing
##straße
attack
trend
exclud
exceed
consult
objectives
loan
never
addevent
shut
uncomm
undue
unres
leaving
##ull
##ulting
Servicesâ
resellers
reserves
##ptop
transition
##cisco
##aint
##lets
##leting
offences
##endar
lab
laptop
##onglobe
##ongoods
longitude
fees
Thames
region
##izonhob
complies
supporting
##llation
percent
perceived
##andise
relig
relied
numer
lawyers
##criber
prejud
necessity
Siteâs
##ordingly
impos
image
impress
professional
setup
directions
directory
Tool
Today
techniqu
quot
quizlet
formally
functioning
helping
helpful
communities
class
cloud
##ippets
##istered
##portionate
indicating
independ
indirectly
##ractors
examples
tracked
Dataâ
followers
saved
button
individualâs
recalls
Usâ
reading
readers
phones
##levant
manners
revisit
revocation
asset
assum
relevance
channel
appoint
regardless
arms
working
cars
carbon
subcont
Customize
receivership
behaviors
##works
properties
goes
goal
goals
describes
simpl
ensured
deliveries
##istrator
##istrators
discloses
internally
listing
listen
nona
believes
resides
Comp
Comply
obligated
responded
enforceable
locally
localized
holding
recording
acceptance
safeguarded
memory
lawfully
clause
doesn
passport
profileâ
infringed
Story
subscriber
head
ended
stops
letters
searched
associations
openload
Anonymous
refun
satisfy
investments
##ognize
recognizing
recognizes
customersâ
passwords
investigating
final
financing
developed
IDFA
conducted
monitors
Accordingly
prizes
informal
uniquely
##abilities
agreed
selections
##cription
governing
governed
Unique
merge
declined
consideration
expand
Analyzing
Otherwise
reported
Identification
acquire
Developer
Details
score
Necessary
##enschut
patients
displaying
100
Query
Questions
Sears
designs
mista
Rewards
internationally
advance
condition
Shell
facility
organizing
##ilding
contains
auditors
Already
Telephone
easy
insolvency
dealing
Onair
bugs
establishing
guest
guests
seekers
##ashboard
questionna
organisational
initiative
optimization
connections
confident
Exper
evaluation
##azon
##azines
presenting
depend
smn
smooth
##007
timesta
Newspapers
NewsAnd
Communicating
corresponding
education
Employ
Amazon
populate
guaranteed
Check
Clauses
edits
editorial
##bridge
Enhance
Wik
places
characters
Technology
Manager
calottery
calendar
latitude
titles
##enger
preset
preservation
Atl
Attention
Marketplace
denny
justif
Operations
forwarded
possess
involvement
acquirer
viii
2016
Pins
Reservations
rental
##ralia
impacts
merchandise
buyer
Automatic
uploaded
Root
mindbody
role
road
rooms
adrollgrou
permanent
friendly
Earth911âs
140
Finally
globe
hosts
minimal
schem
schedule
volunteered
destinations
eligible
Similarly
breaches
Generally
divestiture
key
strong
studies
Recognize
programmers
terminate
âcookiesâ
catalogs
recruiting
Updating
airline
airways
coupon
coupons
flight
realself
regularly
hearst
scrolling
Preference
Likewise
Display
Lower
Local
Locators
Purch
Southwest
body
derived
routing
Insurance
extra
extend
negot
cancellation
behavioural
capability
initiatives
html
Choose
North
Northern
farfet
repeat
repeated
unlikely
Program
Programs
referrer
capture
Contractual
calculate
HTML5
3000
9410
AutoTrader
Deliver
Responding
YOUR
epicgames
lsac
malware
mandatory
sessions
##Check
promptly
cooperation
delay
nearby
cheating
planning
approximate
remedy
##pshift
geography
Submissions
charged
Glassdo
8fit
84121
Lake
Maintain
Moreover
Salt
affords
datenschut
figure
grow
hotel
kingsisle
multiple
predict
rainier
solutions
âHow
##hots
thescore
anticipated
released
maximum
consists
collaborate
attributes
COLLECT
Fulfillment
6350
ATTN
Australia
Building
CBS
DIRECT
Electron
Francisco
Geolocation
Helpshift
Holdings
IKEA
IMDb
NBC
PeopleMat
Radio
Removing
UDID
Windows
Yahoo
border
british
bostonglobe
cnil
dyson
footer
gauge
gsmar
hesitate
horizonhob
javascript
lightspeed
mitigate
practice
pseud
pubg
renew
snippets
sections
âpersonal
âclick
##âwhich
innovid
wholly
##reenshots
algorith
attacks
exceeded
uncommongoods
unresolved
percentage
prejudice
techniques
independently
appointment
carbonite
subcontractors
questionnaire
NewsAndPromotions
adrollgroup
farfetch
Glassdoor
datenschutz
DIRECTV
PeopleMatter
horizonhobby
1a
44
40
55
511
69
60
67
6EN
8n
AR
Act
Authent
Aven
AAd
Art
Br
Bes
Bing
Bel
Back
Box
CM
CP
CD
Cra
Cern
Call
Care
Categ
Clear
Campaign
Corr
Correct
CRM
Code
DO
DP
DC
Des
Dig
Direct
Dubl
Due
During
Dashboard
Est
Each
Edit
Ext
Even
Functional
Functionality
GA
Give
Game
HO
Ham
Here
Hive
Hab
Have
Hear
IB
ICO
Keep
Kingdom
Las
Lir
Let
Lark
Mer
Mar
Mess
Mac
Mill
Mag
Mod
Mailing
Music
NP
Names
National
NPI
NOT
OS
ON
OR
Others
OUR
Ph
PR
Priv
Polic
Pages
Pix
Promot
Paid
Ret
Si
Sa
Spe
SDK
Speed
Sellers
STOP
Ta
TM
TO
TH
Tot
Tags
Talent
UT
Vi
VA
Vol
Vim
Veg
VRS
Wr
WS
WA
Wed
West
Way
Wash
au
aer
aim
aver
bat
bag
band
bring
bound
bund
bau
bbb
cin
core
cach
ds
da
dp
db
dnt
dict
daily
ev
eB
ele
eth
fis
fil
fight
filing
fare
font
falls
finger
gin
gety
gfycat
hm
hp
har
hud
ice
jw
jon
jour
jones
ki
kas
kron
lf
lar
lie
lender
mission
mort
mmt
nat
ou
overs
pin
pose
pron
plex
power
pull
qs
rn
rac
riv
rates
si
sk
servic
sures
solic
say
sony
since
saint
tu
tro
talent
uber
uph
vir
vac
vul
viv
vital
venue
wc
wall
warn
water
xiv
xpress
yel
yoss
ze
zl
zam
âS
âG
âU
âC
âR
âD
âL
âun
âde
âdata
âIn
âCh
âview
##ee
##eP
##ein
##een
##sâ
##sis
##sim
##sage
##ior
##ibly
##ding
##dem
##uit
##ubs
##uide
##uck
##utable
##ault
##lor
##list
##link
##nic
##nal
##nick
##nair
##niversal
##nancy
##tical
##tex
##teen
##tuit
##hand
##held
##hens
##health
##holder
##oin
##oph
##oother
##oven
##ohoo
##ocho
##ration
##rase
##rust
##rights
##fe
##fish
##fron
##xy
##xst
##xem
##ga
##gl
##go
##got
##gate
##gress
##gnancy
##ming
##mart
##mail
##media
##mford
##mmary
##cin
##care
##cution
##california
##cup
##cOS
##citing
##pix
##ptable
##patch
##bu
##bing
##bet
##bub
##bourg
##Fly
##ked
##kick
##Mas
##Service
##wall
##IES
##zz
##zar
##zel
##KIES
##vu
##vit
##vil
##vantage
##vanced
##votes
##Ns
##NA
##Notes
##65
##901
##961
##2h
##201
##210
##227
##TA
##Tub
##TAC
##080
##Auto
##Art
##Amedia
##51
##jority
##OKIES
##16
##Universal
##Cho
##Code
##ERS
##36
##30
##31
##3R
##LY
##75
##710
##era
##erome
##ercial
##ontact
##onven
##aters
##atist
##atix
##atio
##outa
thus
##oring
##orage
##oranker
##ination
##inity
##inition
took
toll
theÂ
thele
##itions
##rother
##ingbridge
##ico
##icag
##ales
##allow
##aland
##alian
##urally
andad
propos
prose
proof
proxy
progress
##lefish
orÂ
orbrows
yourÂ
yourcalifornia
##arzel
remot
reenter
covers
mag
map
macOS
majority
##velling
##ilt
##enture
const
conclus
weight
##tag
personalisation
##igration
withd
fore
forget
forgot
##erver
##erved
mayÂ
##ided
##idel
summary
##aser
##chive
##ried
becom
beeth
##iring
##irety
whate
onel
onto
##osk
##osed
##tering
##reem
##relate
##rehens
##otic
##otnick
death
developer
##omag
adult
adapt
adher
##ceptable
##utive
##etic
##eters
Weber
##olations
accel
##acity
##lectual
##imation
##imize
##imedia
Intuit
alph
abg
abouta
##raws
##pline
##plicates
##tactical
##stein
isky
##geek
##ills
expos
extended
exciting
string
stock
starta
streem
thise
##amp
##ameters
objecting
willing
italian
addu
university
interface
apart
reservations
resulting
##ption
transl
transpar
transmissions
##uction
certainfunctionality
##istic
##isters
##istol
##unci
compatible
compiled
comprehens
timera
accoun
accenture
timely
##umo
##elite
##ellectual
YouTub
offs
laid
launder
##ogin
seocho
##usa
##usal
##ineTra
##arkNotes
whichever
##vertisers
chuck
##arketing
pleaseÂ
##ctionary
few
disk
dispro
disability
disaster
disallow
Those
Thank
regional
registers
bask
##derators
compliant
##antArt
authorization
authorised
applicants
europe
euprivacy
complaining
portable
##ague
##agerial
##ands
featured
television
identifications
broader
broker
pregnancy
necessarily
##isha
imprint
imvu
sitepoint
lodging
profiled
throughout
##ponge
##ada
##reddit
Topix
visitorsâ
acts
allrecipes
technique
quora
former
##odread
ordered
communicated
improves
club
closed
namely
speak
Serviceâs
cortex
correlate
##velup
controlling
affirm
affinity
followed
plans
##viantArt
Whom
##support
##bscribed
activation
##asons
##cific
specification
specifying
description
recover
groupon
Used
researchers
researchgate
managerial
revise
customerâs
assure
remarketing
publication
publications
appoin
argent
archive
caringbridge
rectified
intend
intell
intellectual
partnersâ
subreddit
wellness
Customizing
signal
signup
invite
seeing
affiliations
Whenever
correcting
clickÂ
storefron
interacts
interacted
generation
supports
prevented
paying
opinion
statute
AdS
Advanced
##cipients
CustomerService
cardholder
Condit
participants
analyzes
analyzers
furtherance
reference
adsâ
regulated
regulators
##vision
locale
variations
domains
holds
recorded
##assment
trader
training
tradem
travelling
unsubscribed
safeguarding
enters
entrust
entirety
copyright
totalcontrol
carriers
Goodread
swed
coordinate
coordinates
owns
mediaÂ
therein
Provided
creative
elected
passing
category
##athan
Store
Stream
Stores
Statist
Storage
himself
##nerabilities
pursuing
telem
associating
Ann
hereunder
refers
refund
refusal
amended
electronics
anonymize
customerservice
investigative
enhanced
incident
incidents
inconven
very
Player
Plug
prices
princi
informing
gathering
audiences
police
beforehand
selection
##criptions
Under
Unless
University
definition
analysing
instruction
instructing
declared
dispute
issuer
expire
fulfilment
Analysis
Analytical
##anging
Identifies
allegations
Deter
Defin
Deleting
DeviantArt
screenshots
Networks
handheld
##enses
consumption
para
parameters
10007
Second
enhancement
enhancements
##hole
##hood
georanker
designing
Reasons
Recipients
board
boohoo
firew
granting
seller
selling
sellers
combat
combining
combination
Show
Shared
facsim
usernames
retargeting
##idiaries
shows
priority
encrypts
2011
Subscribe
Support
##FAâ
confirming
confirmations
Alto
Television
bookings
booklets
deals
dealer
responsive
11th
built
deciding
decided
guide
seeks
seeker
seeking
##ropnews
##ashshield
questionnair
Usersâ
integration
integrated
integrations
Stamford
clearest
fair
joomag
navigating
thinkgeek
Except
Exchange
##lesw
sensor
depends
adjusters
amongst
Applicable
Applicants
smoother
term
AppCho
continuing
brid
bristol
wrong
parental
confidentially
Optics
Optâout
notifying
childs
checking
Requests
finding
competitions
stamps
diet
nationality
utility
recommended
validation
guarantees
Chrom
Chief
Chicag
authenticating
factors
idropnews
producing
##iginating
supplied
##agnosing
careful
Contests
Airbnbâs
Clubs
Legitimate
editing
getpatch
reorganized
commitment
AddTh
violates
##ruption
youâll
originating
coverages
Industry
Steamworks
Ens
Engage
Outside
Wix
backup
supplemented
publisher
publishes
published
blogbing
supplier
tablets
177
Notifications
Notwith
Regard
Sweepstakes
Targeted
Targetâs
calero
tests
representing
assignment
configured
deactivation
Alliance
Allrecipes
SparkNotes
justified
moderators
closely
matching
Automated
advised
possibly
remained
escal
esrb
fedex
medical
medications
redact
redbub
reduction
url
urcontrol
Brook
Broad
Administrative
Administrators
Accessing
Transfer
Transfers
warranty
uploading
5375
venture
##TING
canadian
documents
friendsâ
Multiplyâs
Finance
centre
central
drivers
scho
schlesw
##privacyrights
immigration
Property
Conducting
LLCâs
Healthline
Originating
Objects
worried
costs
exchanging
strength
contextual
enquiry
sega
dispose
disposal
building
Americanâs
recruitment
Feedback
Feature
Public
Searches
coupa
hola
holder
##estsâ
Interaction
undertake
undertaken
installation
capital
capacity
Browsing
incompatible
Performing
Guestsâ
bodies
bodily
derive
derog
marcom
route
winners
winner
##persky
oriented
became
cancel
privacypolicy
premises
##subscribeâ
subsequently
reflects
Developing
Developers
initiated
initiating
everydayhealth
dealerships
Israeli
06901
45227
Asset
COOKIES
Choices
Corporate
Federal
MyAuto
Visitor
life
serious
##casionally
subscribed
execution
executed
executive
referrals
UniMas
captured
scanned
Neweggâs
diagnosed
calculation
environments
3620
AutoCheck
DATA
Delivery
EC3R
Verifying
YOU
drawback
failures
lsos
marking
marked
sessional
trials
cooperate
convenience
convenient
contributions
contribute
transportation
cheat
aggregating
aggregators
approximation
remedies
oppose
increase
##pshire
10010
geographical
Submit
charges
smartphone
ResearchKit
275
90210
972
97080
Audience
CIAmedia
CTA
LiveCode
Noveltyâs
Password
Screen
Signing
balance
balances
damage
genre
genetic
luxem
observe
paths
âOpt
repet
reputable
superior
##choices
Investig
##ourguide
positioning
Connect
Connection
bluehole
incorporated
occasionally
Subsidiaries
values
valuable
continuously
Withdrawing
Preventing
HTTP
HTTPS
political
politico
strategies
Disclosure
Disclosures
Measurement
Membership
074
Aviv
Authorized
Canada
Country
Client
CONTAC
Diagnosing
DMV
Double
Edmund
Entity
Everyday
Friends
Jobs
Occasionally
Palo
Postal
Servers
Safelite
Video
Walmart
counsel
duplicates
dialing
fitbit
greater
ratings
robotic
ranking
syn
songkick
sports
springer
voting
xiii
âIDFAâ
##nati
##worth
thirteen
excluding
consultation
religion
numerous
impossible
impressions
quotation
assuming
simplify
nonaffiliates
Computer
refunds
finalize
10011
designsponge
mistakes
Experian
timestamp
Checkr
Atlanta
justifiable
mindbodyonline
schemes
Purchases
negoti
html5
repeatedly
Electronic
NBCUniversal
gsmarena
pseudonym
algorithms
407
511tactical
69710
679
8nu
Avenue
AAdvantage
Article
Brands
Besides
Belisha
CMG
CDNs
Crafts
Cerner
Categories
Campaigns
Desktop
Digg
Dublin
Estimate
Extra
GameFly
HOW
Hampshire
Habarzel
Hearst
IBM
Lirit
Merch
MarineTra
Messenger
Magazines
Modifying
NPPI
ORG
Privatix
Pixel
Promotional
Retargeting
Siri
Saved
Specific
Total
Violations
Volunt
Vimeo
Vegas
VRSumo
Write
Wedding
Washington
average
battery
baggage
bauer
cincin
cache
dsar
evga
eBay
ethnic
fiscal
filtering
filings
fingerprint
getyourguide
harassment
hudl
iceland
jonathan
journal
kiw
kaspersky
kronos
large
lieu
mortgage
naturally
pinpoint
pronunci
racial
rivs
sixt
servicers
solicit
tufts
trovit
uphold
virus
vulnerabilities
vivino
wc2h
xpressbet
yellow
yossi
zealand
zlotnick
zamzar
âUsage
âunsubscribeâ
âInformation
##ovenstraße
##xstar
##cupation
##ville
##9614
##erometer
thelevelup
andadvertisers
prosecution
orbrowsers
yourcaliforniaprivacyrights
remote
constit
conclusion
forgotten
##idelines
becomes
beethovenstraße
whatever
onelogin
accelerometer
aboutads
iskysoft
startapp
streema
transparent
comprehensive
YouTube
laundering
chucklefish
disproportionate
cortexmg
affirmative
appointed
argentine
intelligence
subreddits
storefront
Conditions
trademark
Goodreads
Statistically
inconvenience
Plugin
principle
Definition
facsimile
questionnaires
AppChoices
Chicago
AddThis
Engagement
Notwithstanding
escalate
redbubble
MyAutoTrader
36209614
luxembourg
CONTACT
AAdvantageÂ®
MarineTraffic
cincinnati
journalism
pronunciation
0g
08
05
01
03
1k
2nd
211
265
39
38
3A
35
4v
46
48
41
4th
411
410
4sh
4NA
430
52
50
57
520
528
66
62
68
61
6th
600
651
7w
79
74
72
70
727
8a
85
8H
801
840
820
828
831
9n
9x
9g
9G
9th
900
940
Ar
AM
AA
AD
Ant
Agre
Aside
Affili
Aug
AAI
ANA
BS
B2
BU
BY
Bou
Bar
Bent
Bas
But
Bet
Bever
Bank
Bran
BES
Braz
Baid
Ca
Co
CS
CV
Cart
Cable
Card
Cop
Caf
Coun
Capt
Cashshield
Dr
DS
Dw
DD
Dent
Dif
Del
Day
Drive
Directly
Es
El
Ep
Ez
EN
EL
Esta
Evern
Establish
Evalu
Egg
Erase
Fa
Fl
FT
FO
FC
FR
FL
Fen
Far
Fac
Fra
Fail
Flow
File
Find
France
Function
Fair
Fandango
Gal
Gas
Gra
Gam
Games
Gaw
Green
Gaming
Hi
HM
HH
Har
Hos
Hart
Hard
Home
House
Hub
Ir
IM
Ill
IEC
IRS
Ja
Jose
Joint
Ka
Kings
LS
Lion
Lit
Lic
Lif
Lia
Lod
Last
Language
Later
Mon
Mid
Macy
Mail
May
Map
Mont
Moun
MNG
Males
Ni
NJ
N1
NW
Nin
Nation
Never
None
Nether
Navig
OF
Ow
OB
Obs
Off
Obtain
Oblig
Offic
Pe
PA
PC
Por
Pri
Park
Pick
Post
Pub
Port
Pope
Patch
PUR
Phot
Promotions
PERS
Red
Rest
Rog
Rap
Raz
Risk
REC
Rockefeller
River
SI
SA
SE
SB
Sent
Sch
Sir
Say
Sport
Size
Soc
Sav
SRL
Single
Source
TP
TC
TR
TL
Tit
Table
Tell
Tailor
Trib
Tales
UC
Uta
Uplo
Until
UID
UAI
Urb
Ve
VI
VO
Via
Vari
Vox
Venue
Visible
W1
WP
WC
WH
Wat
Was
Wish
Word
Work
Wave
Yand
Zip
aa
aÂ
ave
avi
aug
away
bs
bi
bf
bc
bing
bur
ble
bot
bge
bount
biz
brough
bols
bio
bower
cs
cy
cel
civ
cab
cens
citizen
camp
cashshield
dl
dil
dim
dite
divid
done
drib
duch
dashboard
draws
ef
ew
eT
ear
eta
eag
earn
eprivacy
ebur
fly
flow
fine
furn
ftc
fang
foss
fanta
floor
fran
flex
ga
gy
gil
gill
gad
gone
gets
gave
gater
giver
hl
hc
hy
hon
hom
hide
hoc
hea
hired
hire
hoot
hiring
hills
ix
ig
iM
iP
iR
ide
ids
iPad
jp
jan
jsp
ker
kid
kom
kay
kore
kcom
kingu
kbb
ly
lk
l6
ling
less
low
lund
living
ms
mi
ml
mn
mc
men
mid
mot
mart
mere
mus
mother
math
micro
mix
mkt
mhed
n1
nas
nol
nile
none
nink
native
null
oh
ood
ohi
oak
orother
pd
pÃ
pen
pan
pam
pel
pain
park
prou
pod
pav
psy
pager
ros
rad
ride
rise
rue
render
rough
russ
round
sl
sq
spl
slow
scri
scrib
sister
sates
sms
sonym
serial
six
samples
solution
sides
tv
tin
tal
tam
tag
tie
tip
tour
tick
ux
va
vo
vm
v8
vet
vice
vast
vict
vouch
wi
wan
wow
wso
wage
ware
wood
wals
wilton
waters
xi
y8
yot
yates
zS
zG
zend
zug
½s
½M
½R
âs
âa
ân
âm
âF
âI
âÂ
âN
âT
âY
âW
â7
â¯
âad
âli
âPI
âTh
##ees
##eing
##ews
##eem
##elevant
##ses
##sle
##stain
##scl
##sions
##search
##sco
##sday
##sibility
##iq
##iH
##ias
##ius
##iates
##ictions
##ikey
##ictionary
##dd
##dh
##din
##dig
##dol
##dog
##doc
##doing
##dens
##daily
##ues
##uar
##uil
##uff
##uary
##uous
##ucation
##uits
##aware
##apy
##aking
##avision
##lans
##lus
##lack
##lia
##lick
##lights
##nn
##ng
##nor
##nan
##nect
##night
##net
##naly
##nline
##nium
##ts
##tp
##tor
##tro
##tar
##tra
##tun
##timate
##tled
##tru
##hat
##hen
##how
##here
##holic
##hone
##hicle
##hock
##hav
##haw
##house
##haps
##history
##hington
##oS
##ov
##ole
##ocial
##oogle
##ror
##ric
##rist
##rich
##rary
##rise
##rateg
##resent
##risk
##fo
##fic
##fil
##fly
##fol
##fra
##fus
##free
##files
##flor
##flights
##gw
##ged
##gom
##gment
##gland
##gistered
##mat
##mes
##mal
##mers
##mble
##mus
##most
##mps
##meo
##mont
##much
##mium
##making
##cc
##cer
##cil
##cid
##cies
##case
##come
##cide
##cili
##crypt
##code
##contact
##camp
##pc
##pit
##pal
##ped
##pot
##part
##pac
##pervis
##pection
##pare
##pass
##pps
##pens
##payer
##power
##pflights
##be
##b3
##bes
##bor
##bar
##bble
##bum
##bine
##bag
##band
##bour
##bab
##bott
##bug
##bund
##borate
##yes
##your
##yright
##FV
##For
##ks
##keep
##kens
##keli
##kiH
##Me
##Med
##SEN
##Star
##Spot
##âP
##âfor
##âll
##âread
##âtime
##âto
##âFi
##âwith
##âpart
##wers
##wid
##wif
##want
##writ
##wood
##watch
##IS
##Iâ
##IO
##IEN
##ITI
##ING
##vD
##vin
##vity
##vings
##vince
##Gov
##68
##60
##92
##95
##49
##44
##41
##428
##26
##25
##8A
##851
##Time
##TES
##05
##036
##As
##AL
##Aâs
##58A
##jur
##Os
##OM
##Job
##1R
##13
##Pro
##Pâs
##Pass
##POS
##Point
##Plans
##Up
##CA
##Con
##CES
##Click
##EI
##ER
##EV
##Bout
##Back
##Buil
##Black
##RT
##RA
##RC
##RR
##32
##301
##335
##361
##LITI
##Vault
##VER
##WAs
##Ã©
##Í¾
##erce
##erary
##erâs
##erbar
##erBout
##oning
##onents
##onville
##onnect
##oncili
##atar
##atow
##atical
##atisf
##esk
##esal
##oul
thor
thro
thing
thest
thoms
thru
threadless
##orer
##oric
##orth
##oria
##orators
##orne
young
##ina
##inct
##inate
##inst
##inical
##inations
##inous
##infin
##inbur
##inars
##inerary
toc
toÂ
toen
towards
tocertain
tomt
todd
tokens
towers
##ionen
theory
thems
thewe
theaters
thevin
ing
inâ
inÂ
inta
inside
inhibit
incurring
ingl
injur
##itating
##itles
##itively
##itarta
##itoring
anim
##roy
##road
##rodu
##rooms
##rospect
##rosco
##roborate
##ctors
##ingern
##icon
##icut
##icity
##icide
##ician
##icious
##ald
##aling
##alers
##alties
##alPlans
##ationary
##urg
##urer
##urant
##urry
##ursday
ofÂ
ofir
##eness
##enity
##enea
##enari
##enews
##ennium
##forcing
##fortun
proportionate
probab
province
##ison
##isen
##isers
##isions
##formatio
##ley
##lean
##lement
##lebr
##league
orfunctionality
ordin
yours
yourâ
youronline
##arations
##arequ
##arification
usual
usnews
reci
rety
reput
really
reply
reward
reuters
replace
republic
informationÍ¾
##anation
##anch
##anum
##ancies
##essment
##essage
maid
maple
mapp
##ersonâs
dataâ
dataprivacy
datains
##ilos
##ilver
##ilst
##ilions
##ilad
##ilitate
##ilistic
conclud
convert
concept
condol
weigh
weâve
week
##tability
ours
personalise
##ithere
##igibility
##cessive
##cessible
withÂ
forever
forcing
##erving
##erview
maybe
##ida
##iders
sustain
suicide
##asers
##associ
##asuring
##ighol
##ighbor
##chat
##chart
##chise
##check
##chives
##theless
##tholder
bear
bever
began
comÂ
comes
comâs
##ira
##irep
##irement
##iruses
whilst
hack
hamb
onward
onwards
##osh
##osia
##terpr
##terfly
##rew
##reach
##reational
##represent
##referred
##relevant
##registered
##ote
##otland
##otlight
##lyn
##lying
##lywood
depos
deleg
debu
detro
debug
adam
adress
admit
adchoices
adhere
##uts
##uting
##utation
##utors
##utterfly
thatÂ
##blebund
##eting
##etouch
##etric
WeÂ
Well
Weather
Welcome
Weâve
Week
Weâll
##therapy
##artments
##olen
##olidation
##olesal
acceptable
notes
##itynet
##acing
##aced
##acceptable
##lected
partial
anymore
anybody
##iment
##imated
##iminate
Instances
Informatio
##cles
##clusive
alto
alternatively
alias
altru
album
bypass
abc
abiding
abnor
abbott
abroad
collections
iftt
##rain
##ravent
##raping
##raisers
##plan
##plications
##plorer
##ifies
##stance
##stations
##struct
isnt
##illsh
atlus
true
tracing
exten
exempt
exclus
excessive
exclusive
##oker
##bster
##bscriptions
##pose
consul
consci
consign
consho
conspic
consulting
console
considers
consolidation
##mentor
##mentation
story
stem
stip
stances
steam
style
stuff
stationary
stolen
##amer
##amble
##amedia
##amless
##ferral
lobster
neither
nexstar
neighbor
itâs
itinerary
contrary
contravent
shore
shoot
unit
unus
unob
unpa
undu
unco
unex
unne
units
uneth
unrel
uniq
unwant
uninst
unfortun
unregistered
unacceptable
lease
league
consenting
purposesâ
##ulated
##ulators
thirdâpart
##sodig
Personalize
Personalization
intercept
interruption
api
apartment
entail
enough
entails
enlist
enrich
resource
resuts
##ptout
##ptember
transformation
transact
transient
##pecial
##pekt
certainÂ
##istog
##istence
##istry
outgoing
outwe
outof
outstanding
outcome
outreach
##ountâ
##une
##unch
##resser
compact
compens
compared
complex
comprise
components
complement
computing
accesses
accessibility
##cision
accred
cookiesÂ
timefra
##uminous
##eled
##elph
##elms
##elves
##elwor
##letv
##letion
##letins
visitÂ
visitflor
dog
doctors
##endum
webserver
howmuch
launch
##onger
##ogue
seat
seoul
seamless
##ichen
chain
chea
chasing
chaser
christ
chelms
##arketers
##arden
##iviruses
makers
##pered
##perly
##perlink
fee
feed
marketers
disci
dispon
dislike
disabilities
disruption
advertises
Then
Thursday
regions
##izable
##dera
complicated
compliment
marketingÂ
##beral
##dents
##proof
suppose
officers
meal
meter
meant
##antify
##antlink
optout
optâout
##bling
perl
perhaps
perks
soon
sock
##ieâ
partyâs
##iceworks
##andmail
relia
relative
reliance
accountÂ
accountants
accountancy
shareÂ
decisioning
decisionmaking
numeric
##ilebox
usedâto
preced
prepare
preamble
Siteï
Sitecore
browsed
##ername
##ernetwork
##ordings
usersty
locate
##mitment
imple
immin
implications
websiteâs
ago
agari
fund
profit
sets
settled
throughs
throughâ
director
direction
devine
devised
devising
deviant
##ading
ToÂ
mailed
customs
customizable
actor
actors
actuar
##cura
alliance
allerg
##ackhaw
##ackerbar
browserâs
quantify
##ndividual
formâ
advertisingÂ
supervise
supervising
##embly
##ematical
wishing
helpline
##equest
##odes
##oded
companion
companie
senders
providersâ
orderfor
##phones
##phlets
##phoning
communicates
improperly
clone
clock
clinical
clarification
##ipulation
##istering
indication
counting
##ractive
examinations
speed
tracker
trackers
webinars
behind
corp
correl
corroborate
##veloc
##velUp
upper
upgra
upvotes
theirbrows
folders
##ulars
plc
plate
plain
##ercising
asking
Which
Whether
Wholesal
##such
##suite
##subscribing
##ously
respondents
undergo
underwrit
activated
needing
specifications
safer
saves
savings
Proceed
Provision
desk
desires
hassle
promoting
promoted
promoters
chooseby
newspa
operates
recent
recall
recons
reconcili
recreational
##aches
##achine
##greement
legitimately
Uses
Username
avast
avatar
avira
avantlink
##mining
##ministrator
researching
researched
phases
phrase
philos
##levard
manipulation
##ocacy
##ocodes
revenue
additions
##alling
customercare
likes
liking
liked
likeli
liberal
assured
assurance
assume
approve
approaches
postc
##prises
relevancy
formats
##ookieâ
remediate
##egal
##egistered
##ography
##tailed
limits
machineâread
##ilian
appraisers
appletv
regards
regarded
arena
arisen
workstations
cares
preferential
demo
stories
##eaholic
introdu
experts
structures
tab
tabs
submissions
companiesâ
Customs
Customization
transmits
communicationsÂ
messenger
lawsuits
behave
signs
seeÂ
seecontact
logo
logon
logistics
logfiles
##priated
##lier
PrivacyAd
arts
simple
preferencesÂ
Form
Forter
circle
circulars
inquire
inquires
circumstance
volume
voluminous
circumstancesâfor
generating
##rington
mainly
submits
submittor
ecosia
nothing
payers
paywall
providingÂ
noncomm
nonâP
##ftware
belong
##pected
unlock
stats
static
statics
statnews
admins
administrator
administrators
cards
cardâs
residual
residential
Comments
Combine
Commitment
periodic
participated
article16
obliging
responds
references
referenc
##ariety
adserver
regulates
surround
phoneâs
affiliatesâ
Sitesâ
Sitesâwhich
shareddoc
purchaser
purchasers
changed
currency
##abling
enterprises
removeÂ
Again
Agency
owing
owens
localsearch
revoked
paymenticon
##actional
resolutions
recordkeep
train
trace
trades
deletes
unsuccess
unsubscriptions
accepts
statistic
instigation
specificity
entries
entitles
copying
fulfilled
otherservices
Govern
GovD
sweepsta
viewers
doesnt
##ordinate
##inters
##intosh
blackhaw
##etsâ
washington
thereon
thereâs
standardized
typical
crew
creates
creator
passed
passive
beaconsâwhich
softnews
##athy
##athernetwork
organize
organized
portfol
profileâs
infringing
Star
Stop
Stories
Strateg
subset
heart
hewit
respects
respecting
respectively
stopping
stopped
reviewed
telephoning
##sociates
searching
##istrationâs
newegg
Academ
satna
opens
Another
Answ
Particip
hereafter
hereof
refrain
mode
models
modifications
investor
investment
amending
providerâs
##ulty
##ulties
##ultant
Appoint
##gram
anonymization
anonymised
recognising
physician
engages
agreeing
investigated
investigators
addressesâwith
fullest
fullfil
finance
developers
developments
IDFV
Plc
Plus
Place
Plaza
Placed
bills
knowled
pricing
printers
informatio
##idered
successors
successful
stephen
pointers
turned
Accountâ
Accountâs
##eoIP
Userï
Userâs
assists
assisting
assisted
assistants
governance
Unlike
Uncheck
Unsubscribing
defending
default
defenses
instructed
declarations
considerations
##tcapital
issuing
issuers
Analyze
PIN
PIA
##lands
inaccessible
##anges
##player
financials
financialmentor
1910
1992
19428
Identifying
Identifier
##erts
allegation
courses
spending
spouse
spotlight
spiceworks
corporations
Delete
Decide
Dealers
Decision
Deletion
Detailed
scam
scott
scoring
scenari
scraping
##ttle
DigitalGov
Nexstar
##ensing
##ensions
consequence
allegedly
10th
222
221
2211
2210
2258A
Quay
Quizzes
See
Selected
September
salary
salutation
viber
encoded
##ondo
##ondsw
Collects
geocodes
occupation
misappro
misrepresent
##emberï
specialized
specialising
Wherever
Real
Review
Relevant
Refus
Referral
Software
boating
firm
grants
grantor
discount
discover
discovery
disconnect
sells
shops
diffic
combines
advice
advocacy
membersâ
livecode
serverâs
differentiates
versus
##away
implementation
healthy
healthcare
commercialize
Should
Shutterfly
destroy
downvotes
facing
##itzstraße
retrospect
retirement
withdrawals
priorities
202
2000
2035
20036
Suggest
Supervis
##weetsâ
Customersâ
Commercial
Commerce
Alerts
Tech
books
booked
insight
insist
inspect
inspection
insurer
dealt
responsibility
122
1201
11force
11201
11usa
1125
1105
Businesses
Europe
bug
buzz
valve
decrypt
##elsâ
##elsen
guidelines
guitarta
partnerâ
partnered
downloading
officially
facilitating
Staff
clearer
clearance
fake
faulty
humblebund
##kenly
organisation
programfor
##espondence
CARFAXÂ
CARFAXâs
joined
navigational
stay
stays
staying
sometimesreferred
thinks
initial
##ributions
altered
sheets
optimized
optimise
optimally
optimizing
optimisation
deterministic
freedom
##reamsodig
texts
UseÂ
assessed
confidence
Partnership
Explorer
Existence
Exercising
qualifications
##appa
##azine
trouble
presentation
returning
FaceTime
NIH
USC
USE
USERS
USING
##optout
##optics
##cafe
##113
departments
##ommend
adjustments
logins
discusses
smoker
smilebox
terror
##001
Processors
branch
puts
shipment
shippers
corresponds
normal
Optional
Optimize
distinct
rejects
checked
checkout
Requested
Associates
Airlines
AirPass
twinfin
##cycles
competition
visitorâs
expires
expressing
frequent
Amenity
Without
diary
eliminate
utmost
##gging
##ggage
reaching
recommending
travels
validate
validity
validated
Chat
Child
Changing
Chrisk
authenticated
authenticity
double
idle
idpc
supplies
Control
Contributions
amendments
Close
Cloud
editor
##morex
##utec
explanation
commits
identifiedâ
Addendum
violate
violated
violence
advantage®
actionable
tableau
youâd
originates
originally
foreground
attend
attorne
attractive
participatingÂ
Securely
Enable
England
Encrypt
Enforcing
Enterpr
Enabling
Outs
SSA
SSID
WiâFi
carts
certifying
warhistory
suggesting
layer
layaway
chats
chatrooms
supplementing
publishing
taxation
taxpayer
logsâwhich
distributers
distributed
distributors
beneficial
Many
Manually
Managing
Manufactur
Registered
Registering
Swappa
Targeting
caloric
calistog
truste
trustworth
optionally
assignee
ec1v
Consultant
presence
preserved
utilizing
utilising
utilizes
privately
Impact
denial
justify
justification
justifications
pertains
##ixelsâ
severe
eduPadâs
13th
1380
3031
30361
Being
Before
Because
Precise
Premium
Payments
Paypal
gameplay
treats
ub8
ub7
##ierleague
##017
advisor
advisers
advisories
adoption
adopting
looked
completeness
precisely
safebrows
beliefs
amounts
paragraphs
2010
2017
212
2101
GeoIP
Residents
ResMed
Setup
especial
filling
meda
medial
redeem
urls
urband
uploader
##IPIEN
commenting
organizationâs
chargeback
explaining
Spotlight
ISO
harmful
harmondsw
litchart
rentals
rentcafe
ruling
##version
exiting
Administrator
Administrationâs
learningâ
screened
Transport
Transmission
Transactional
Trackâ
warranties
answering
Depot
Simple
TENâs
Valley
break
raised
room
##lingus
##TISI
##ONAL
leads
leading
dissatisf
teams
institute
Anyone
Unionâs
Processingâ
##ffiliatesâ
friendâs
1536
centers
homepage
hostelwor
judith
licenses
licensing
minutes
ministry
âcookieâ
##ECTING
prospects
advertorial
exported
plugins
hereinafter
Platformsâ
dataprotectionofficer
Controllerâ
bureau
Firewall
Generation
Hills
LtdÂ
Order
celebr
division
divisions
flashls
ipass
keys
poll
ultimate
##ACK
happens
Interests
exchanged
contexts
resettable
segmentation
temporary
Profileâ
arranging
endeavors
incoming
Recordings
Recommend
5330
documentation
catalogues
255
Kay®
Print
Repair
Represent
airport
airlines
boxes
crm
crtv
crackerbar
flatow
holes
holders
holstein
hollywood
##spitzstraße
##Info
realâtime
##annelsâ
##estsnews
Interactions
Interface
strictly
enrolling
enrolled
enrollment
compromise
accidentally
##elpâ
quicker
Complaint
installing
spamming
encouraged
Receipt
Receiver
Commissioner
households
arrangement
Performance
acknowledging
acknowledgment
165
Guidelines
Lead
LevelUp
Locator
Metadata
Measuring
Paris
Parcel
Parlia
UPSâs
banners
banned
estÃ
estimated
focuses
higher
highly
highlight
marra
ovulation
overview
paul
paper
routes
routine
richer
richards
âPublic
âPixelsâ
##daq
##409
remind
reminder
extract
streamâ
streamline
canceled
cancelling
appealing
##elivery
securing
registrants
premierleague
reflected
Trackingâ
globally
worlddaily
favorited
237
23rd
Assets
Assurant
Assessment
Assembly
Choice
Javascript
Microsoftâs
NYS
fastmail
fixr
grand
samscl
##groundCheck
##rolina
suspending
played
playlist
referrers
entirey
captures
scanner
Allows
Contractor
Contractors
attempting
calculators
reduced
Publishing
appears
Sponsored
Typically
achievements
365
363
36th
947
94301
Creating
DAP
DAAâs
DART
ECRM
Standards
Verify
Vermont
Verifies
drawings
failure
graphics
honored
irrelevant
malta
malicious
momondo
mandate
mandated
pieces
packages
trial
trimble
tripit
##naments
##networks
##mania
prompted
conveniences
delays
delivers
debts
expectations
started
nearest
contributed
outsource
separate
receipts
prevail
aggregator
indexed
planned
invoice
opposing
opposed
opposition
Adsense
satisfactory
monetization
Appleâs
increases
increased
increasing
principally
UnsubscribeÂ
10014
10018
Shopify
Shopping
smartphones
benchmarking
Relationship
Clicking
Clickstream
merchantâs
Financials
Learning
System1âs
overseeing
Snapchat
Survey
Understanding
revealing
27001
314
315
3100
498
493
7532
75017
7726
8460
Audit
Auditing
CIN
CIO
Helpmeo
Laws
Maintenance
Passport
Screenshots
Scotland
Sale
afforded
datarequ
damages
damaging
edmund
edreamsodig
edutec
figuring
große
hotels
lucid
luggage
multimedia
observed
observing
predictions
pickup
raining
solo
âAnaly
âAcc
âAgreement
âAffiliatesâ
âOther
âOnline
âHelpâ
##smouth
##Â®Pro
thesite
inputting
anticipate
projects
releases
maximize
supernat
superordinate
Investing
Investigate
loading
seconds
secondary
engineers
incorporate
incorporates
occasion
occasions
Subscription
Subscriptions
photographs
collaborators
attribute
ConsumerInfo
Prevention
driverâs
strategy
strategic
endeavours
Purposesâ
negatively
premiums
COLLECTING
Offering
Offered
Offerings
Detecting
0700
95113
95409
Avature
ACH
ACSI
ACCES
Authority
Counts
Clients
CONSEN
Dictionary
DMCA
Dougl
Drives
Drivers
Driverâs
Edinbur
Entities
EveryJob
Friend
John
Listings
Maple
Make
Making
Occupation
PO6
POLITI
Palmers
Posting
Server
Safari
Trade
Traffic
Traveloc
Videos
Viewing
Wallet
bulbag
bullying
bulletins
cellular
counter
digest
digits
digikey
dialogue
fitness
furthers
robust
rankings
symp
songs
springern
taste
tastes
tasteaholic
vote
watchdog
âIDâ
##herbes
##SIS
##TOPâ
##OTECT
thirty
##inois
exclude
nevertheless
Servicesâsuch
labeled
laptopâs
religious
numerical
impossibility
impression
quote
classes
revisits
assumes
simplifying
listening
nonaffiliated
Completing
Complying
heading
headline
headlines
refunded
mistakenly
RewardsÂ®Pro
Experience
dependents
timestamps
Employer
Employers
Employee
Checking
Wiki
Wikia
Wikimedia
Technologyâ
Atlas
justifies
globeandmail
scheme
keyboard
strongly
Purchase
negotiate
94104
94105
94103
Delivering
Maintaining
growing
predicting
borderfree
gsmarenea
pseudonymous
renewal
âpersonally
âclickstream
algorithm
445
559
55121
6065
ARE
Authenticate
Authenticating
Backing
Background
CPF
CPU
CareKit
CareerBout
Correction
Correspondence
Correcting
Corrections
DPA
DPO
Directive
Editors
Keeping
Macintosh
Millennium
Namespace
NPII
ONLY
Phone
Philad
PRO
PROTECT
Policies
PoliceP
SDKs
Tax
Taking
TMC
THC
THIS
VAT
WSU
WSOP
WAF
WARR
aerlingus
aimed
bandcamp
bandwid
bringing
bundles
david
daero
dpc
dpdh
dbi
dba
dictate
dictated
element
elements
fighting
gina
ginny
jwplayer
lfd
ourother
outag
powered
pullach
rns
skills
skillsh
sureswift
sureswif
vacation
vacancies
âSocial
âSTOPâ
âGoogle
âGeoIP
âCookies
âContact
âRelevant
âRequest
âDo
âData
âLimit
âLegal
âdelete
âChanges
âChannelsâ
##ePress
##ophical
##feed
##buzz
##kedâ
##LYSIS
propose
proposed
magazines
magazine
mapping
weightwatch
##tagenews
withdraws
withdrew
foreign
forecast
##oskin
##oskins
adults
adapting
adhered
adherence
alphanum
alphamedia
exposing
exposure
adduced
adducing
translations
translating
accountability
accountholder
offshoot
Thanks
basket
baskets
brokerage
AdSream
AdSense
AdvancedBack
entrusted
totalcontrolsupport
sweden
swedish
telemetric
telemarketers
Annually
Annex
Determining
Secondly
firewall
firewalls
Showcase
bridal
bridgw
wrongdoing
dietary
Chrome
Chromium
Ensure
Ensuring
Regarding
Regardless
Allianceâs
urcontrolsupport
Brookhav
Brooklyn
school
schools
schleswig
schleswighol
Publicly
derogation
derogations
lifebuzz
seriously
Submitting
Submitted
2750
LiveCodeÂ
Passwords
repetition
repetitively
Investigations
Investigating
Connecticut
0745
0747
DoubleClick
sync
syncing
AtlantaBlack
negotiation
negotiations
pseudonymization
Merchant
Merchants
Voluntary
Voluntarily
icelandic
icelandair
kiwi
kiwirep
upholding
âInformationâ
remotely
constitute
constitutes
0gb
08007
0520
01851
0344
1k8
2655
3900
3AU
353
4variety
48201
411mania
4shared
524
573
664
6295
68335
7w1
7930
746
72716
8ae
856
8HQ
84068
82049
8289
9nr
9xr
9gu
9GU
94041
Archives
AMP
AAID
ADVER
Antiviruses
Agreements
Affiliate
ANALYSIS
B2B
BUY
Boulevard
Barrington
Bentonville
Basis
Buttons
Better
Beverly
Brannan
BEST
Brazilian
Baidu
Carolina
CVV
Copyright
CafePress
Council
Captures
DSS
Dwoskin
DDoS
DentalPlans
Different
Delaware
Esq
Eligibility
Epom
Ezvid
ELEV
Evernote
Evaluate
EggPoint
Fax
Flurry
FTC
FOR
FCRA
FROM
Fenian
Fargo
Facilitate
Fraud
Failure
FileVault
Galavision
Gravity
Gambling
Gawker
HiCon
HMRC
HHI
Harbour
Hosting
Hartford
Hardware
HubSpot
Irish
IMEI
Illinois
Japan
Kaplan
LSOs
Litmus
License
Lifetouch
Liaison
Lodge
LaterÂ®
Monitoring
Macyâs
Montgom
Mountain
Malesherbes
Nielsen
Ninth
NationBuil
Netherlands
Navigational
Owner
OBA
Obscura
Offline
Obligation
Official
Peter
PCI
Portal
Primary
Pickup
Pubmat
Portsmouth
Popeyes
PURPOS
Photos
PERSONAL
Restrict
Rogersonâs
Rapid
Razer
RECIPIEN
Rivera
SITES
SAR
Schedule
Saylor
Sportority
Soccer
Savings
TPWAs
TCP
TRACK
TLS
Title
Tableau
Tailored
Tribune
Utah
Uploading
Urban
Vehicle
VIN
VOIP
Various
W14
WPPâs
WC1R
WHY
Wattp
Yandex
aviation
augment
bs13
biography
bfdi
burdens
bleichen
bgea
bounty
bizpac
brought
bolster
csv
cyber
celtra
civil
cabin
census
campus
dlpage
diligence
dimensions
ditech
divide
dribbble
duchy
efta
ewald
eTags
earlier
etags
eagan
earned
ebury
flyer
furnish
fangamer
fossé
fantasy
franchise
flexibility
gaoptout
gyrosco
gillie
gadgets
hcb3
hyperlink
honors
homes
hockey
header
hootsuite
ixl
igain
iMessage
iPhone
iRoot
ideas
jpcycles
january
keri
kids
kayak
korea
kinguin
lynn
l6h
lingus
lowell
msk
mlb
mclean
menus
midnight
motor
martial
merely
musical
mathematical
microphone
mixed
mheducation
nasdaq
nolonger
ohio
oakville
pdp
penalties
panels
pamphlets
pelmorex
proud
podcast
pavilions
psych
rosa
radius
russian
slithere
sql
splash
slower
scripps
scribol
sonymobile
sideshow
tiny
talk
tampered
tournaments
ticketing
uxbridge
voice
vmware
v8w
victoria
voucher
wikiH
wandera
wsop
warehouse
woodward
walsh
waterside
yotpo
zSilver
zGold
zendesk
zugspitzstraße
½Memberï
½Registered
âaffiliated
ânon
âmachine
âFree
âIndividual
âNon
âTweetsâ
âYour
âWhat
â¯your
âadsâ
âlikedâ
âPIIâ
âThird
##hocken
##powered
##ForMe
##IORS
##Ã©s
thorough
throttle
thestreet
thomson
toenable
tomtop
themselves
theweathernetwork
thevintagenews
intake
inglÃ©s
injury
animations
probabilistic
ordinary
youronlinechoices
recipe
retype
reputation
replacement
maiden
mapped
datainspekt
concluded
converting
concepts
condolence
weighing
weeks
##association
beverly
hacker
hamburg
deposits
delegated
debugging
detroit
adams
adressen
Wells
Weekly
##itynetworth
altogether
altruism
albums
abnormal
abbotts
ifttt
##structed
extensions
exemptions
exclusions
consulted
consciously
consignees
conshohocken
conspicuous
stemming
stipulated
steampowered
neighborhood
contravention
shootproof
unusual
unobstructed
unpairing
unduly
uncover
unexpected
unnecessary
unethical
unrelated
unwanted
uninstalling
unfortunately
thirdâparty
intercepted
apartmenttherapy
transactors
outweigh
compensation
accredited
timeframes
##elphia
visitflorida
cheapflights
christoph
chelmsford
discipline
disponible
socket
reliably
preceding
userstyles
implements
imminent
agarioskins
deviantart
actuarial
allergy
correlating
upgrades
theirbrowser
Wholesale
underwriting
Proceedings
newspaper
reconsidered
reconciliation
philosophical
likelihood
postcode
machineâreadable
introduce
PrivacyAdministrator
noncommercial
nonâPersonal
unlocked
referenced
surrounding
shareddocs
localsearchassociation
recordkeeping
unsuccessful
Governments
GovDelivery
sweepstake
blackhawk
portfolio
Strategic
hewitt
Academy
Answer
Participate
Appointment
anonymisedÂ
fullfilÂ
knowledge
19103
scenarios
22102
misappropriated
misrepresentations
Refusing
discoverable
disconnecting
difficulties
retrospectively
20006
20354
Supervisory
buzzfeed
guitartabs
humblebundle
terrorism
distinctive
AirPassâ
twinfinite
Chriskresser
attorneys
Encryption
Enterprise
warhistoryonline
Manufacturers
calistoga
trustworthy
30319
safebrowsing
especially
redeemed
urbandictionary
harmondsworth
litcharts
breaks
##TISING
dissatisfied
hostelworld
celebritynetworth
flashlsos
ultimately
Representative
crackerbarrel
##estsnewspapers
Complaints
Parliament
worlddailyonline
samsclub
##groundChecks
playlists
Helpmeoptout
datarequestsnewspapers
edmundoptics
edreamsodigeo
âAnalytics
âAccountâ
âAgreementâ
supernatural
ACCESS
CONSENTING
Douglas
Edinburgh
EveryJobForMe
POLITICO
Palmerston
Travelocity
bulbagarden
sympathy
springernature
tasteaholics
RewardsÂ®Program
60654
CareerBoutique
Philadelphia
PolicePrivacy
WARRIORS
bandwidth
dpdhl
outages
skillshare
sureswiftcapital
âGoogleâ
weightwatchers
alphanumeric
alphamediausa
AdvancedBackgroundChecks
bridgwater
Brookhaven
schleswigholstein
AtlantaBlackStar
kiwireport
683351
ADVERTISING
ELEVEN
HiConversion
Montgomery
NationBuilder
Pubmatic
PURPOSE
RECIPIENTS
Wattpad
burdensome
franchisees
gyroscope
scrippsnetworks
wikiHow
âIndividualsâ
datainspektionen
